<s>	0
<pad>	0
</s>	0
<unk>	0
<en>	0
<hi>	0
<bn>	0
<gu>	0
<kn>	0
<mr>	0
<pa>	0
<sa>	0
<ta>	0
<ur>	0
▁	-1.8811
.	-3.30625
,	-3.90286
▁the	-4.24646
।	-4.57346
s	-4.70199
▁of	-4.88297
▁and	-5.03438
▁to	-5.08479
▁in	-5.19228
▁is	-5.24337
▁a	-5.37536
▁के	-5.38151
?	-5.44904
▁है	-5.5006
▁में	-5.65098
-	-5.6758
▁it	-5.86736
’	-5.87225
▁की	-5.90484
▁that	-5.90664
▁The	-5.941
'	-5.98697
▁for	-6.00403
▁और	-6.01139
▁I	-6.02159
▁But	-6.02416
t	-6.05264
▁this	-6.11581
▁are	-6.13259
)	-6.1486
▁was	-6.1984
▁be	-6.2034
▁(	-6.22606
▁को	-6.24792
▁છે	-6.32976
▁on	-6.33084
▁has	-6.33275
▁not	-6.33793
▁से	-6.34202
▁have	-6.38187
▁you	-6.43214
:	-6.4376
▁will	-6.43976
▁And	-6.4398
▁ने	-6.46542
▁का	-6.46815
▁with	-6.47192
▁हैं	-6.48006
!	-6.56289
ing	-6.61548
▁पर	-6.6641
ed	-6.71967
▁A	-6.75472
▁by	-6.76047
▁at	-6.82108
▁कि	-6.83754
▁been	-6.84486
▁एक	-6.848
▁"	-6.86579
▁also	-6.87191
▁from	-6.87766
▁नहीं	-6.88955
▁ਹੈ	-6.91511
▁said	-6.92421
▁can	-6.92931
▁as	-6.94155
▁He	-6.97501
▁लिए	-6.97746
▁he	-6.98571
▁भी	-6.9959
d	-7.0149
▁અને	-7.02055
▁आहे	-7.05951
▁“	-7.06396
▁were	-7.08768
▁India	-7.09832
▁all	-7.10158
ों	-7.1204
ी	-7.12257
র	-7.14057
न	-7.14186
▁यह	-7.14445
▁इस	-7.15109
▁It	-7.15365
▁an	-7.18214
▁do	-7.19076
▁कर	-7.20806
▁we	-7.22358
▁આ	-7.23301
▁किया	-7.26639
ের	-7.27833
▁This	-7.28137
ल	-7.28531
▁ਦੇ	-7.30272
▁कहा	-7.31028
▁his	-7.31143
માં	-7.3232
▁there	-7.32778
क	-7.33202
ના	-7.33998
re	-7.35931
म	-7.36311
ದ	-7.37253
स	-7.37884
▁ಮತ್ತು	-7.39977
ની	-7.40005
ে	-7.4006
▁what	-7.40837
ই	-7.40992
▁about	-7.41775
▁one	-7.42374
▁आणि	-7.42378
▁or	-7.43206
▁very	-7.43631
त	-7.44082
▁had	-7.44175
m	-7.4443
ly	-7.44886
च	-7.4696
▁Minister	-7.48786
▁ਅਤੇ	-7.49096
▁हो	-7.49365
▁no	-7.49911
▁people	-7.50443
▁your	-7.50542
▁they	-7.51037
▁না	-7.51515
र	-7.5184
▁ਨੂੰ	-7.52626
▁time	-7.52637
y	-7.52697
▁गया	-7.53302
▁All	-7.53437
▁so	-7.54425
e	-7.5528
▁ਦੀ	-7.55456
▁police	-7.55565
ा	-7.56505
▁ही	-7.56524
ने	-7.58029
▁them	-7.58337
ना	-7.58718
▁या	-7.60314
▁In	-7.61689
ம்	-7.62366
ला	-7.6243
▁which	-7.63069
i	-7.63195
▁So	-7.63265
er	-7.6451
▁their	-7.6469
▁करने	-7.64844
ता	-7.65967
a	-7.67059
▁case	-7.67929
ને	-7.69162
ও	-7.7033
▁था	-7.70637
े	-7.7076
▁साथ	-7.70827
▁તે	-7.71114
▁‘	-7.71456
▁There	-7.74057
▁पुलिस	-7.75473
▁other	-7.76074
▁কিন্তু	-7.76083
al	-7.77106
ন	-7.77962
▁more	-7.78361
ਾਂ	-7.79058
▁two	-7.80014
▁ਇਸ	-7.81066
▁We	-7.81647
▁আর	-7.81934
▁should	-7.82248
▁तो	-7.82285
ಯ	-7.82526
in	-7.84274
▁ಈ	-7.85356
ಗಳು	-7.85492
▁any	-7.86098
▁এবং	-7.8646
▁लेकिन	-7.86769
ক	-7.87575
▁ಆದರೆ	-7.89631
▁government	-7.89781
ं	-7.90099
▁know	-7.90242
▁first	-7.90851
▁What	-7.91278
▁don	-7.91942
▁me	-7.92003
▁here	-7.92255
▁1	-7.92658
▁2	-7.92861
ો	-7.93014
n	-7.9398
▁भारत	-7.94236
▁out	-7.94463
▁માટે	-7.96011
▁then	-7.96197
ट	-7.96304
▁these	-7.96668
▁उन्होंने	-7.97392
ज	-7.97459
▁him	-7.97516
ರ	-7.97867
▁আমি	-7.98803
▁who	-7.99021
কে	-7.99472
ક	-7.9994
व	-8.00025
▁ਵਿੱਚ	-8.00229
;	-8.00652
▁बाद	-8.01443
▁her	-8.01582
▁Police	-8.01738
▁how	-8.01834
▁પણ	-8.03615
▁but	-8.04146
கள்	-8.04198
ર	-8.04487
▁like	-8.04613
ਨ	-8.04809
▁दिया	-8.0491
ল	-8.05237
/	-8.05731
I	-8.05754
▁नाही	-8.05984
▁film	-8.06056
(	-8.06306
▁Indian	-8.06352
▁its	-8.06458
ન	-8.0652
▁ஆனால்	-8.06573
▁ਨੇ	-8.06635
ੀ	-8.06904
▁up	-8.07427
▁against	-8.08072
es	-8.08672
▁જ	-8.08979
▁over	-8.09054
▁after	-8.09294
▁They	-8.09866
▁Singh	-8.10438
य	-8.10439
ನ	-8.10712
▁এই	-8.10738
▁এ	-8.11094
▁ਇਹ	-8.11414
▁जा	-8.11493
"	-8.11924
प	-8.12003
ಿ	-8.12051
ম	-8.12755
ली	-8.13547
ਲ	-8.13798
▁good	-8.1401
ਕ	-8.14271
▁ਲਈ	-8.14551
▁ਹਨ	-8.14615
▁new	-8.15093
▁work	-8.15345
▁अ	-8.1544
▁need	-8.15495
▁my	-8.1555
નો	-8.15812
▁করে	-8.16374
▁गई	-8.16694
ही	-8.172
▁such	-8.17323
▁BJP	-8.17356
▁some	-8.17394
લ	-8.17528
▁એક	-8.17667
ಸ್	-8.17729
▁did	-8.17748
▁only	-8.17937
ಗಳನ್ನು	-8.18165
▁वह	-8.18253
r	-8.18358
▁ਦਾ	-8.18806
▁पण	-8.19392
ી	-8.19697
ड	-8.19922
▁जो	-8.20045
▁3	-8.20053
ு	-8.20665
▁into	-8.20724
ವನ್ನು	-8.20881
▁water	-8.20935
an	-8.21173
▁our	-8.21521
▁Rs	-8.21594
▁well	-8.2187
ले	-8.22461
▁कोई	-8.22573
▁हे	-8.2299
▁रहे	-8.23232
▁would	-8.2345
▁નથી	-8.23924
▁being	-8.24247
▁কি	-8.24302
▁At	-8.24357
▁रहा	-8.2458
▁You	-8.24595
▁many	-8.25121
▁just	-8.25249
▁Are	-8.25487
▁get	-8.2555
▁आ	-8.25685
▁ਕਿ	-8.25807
ग	-8.25825
▁S	-8.26687
ಗಳ	-8.26778
द	-8.27051
▁Delhi	-8.27128
▁मैं	-8.27512
▁too	-8.27532
▁state	-8.27584
க்	-8.27636
▁country	-8.27882
▁रही	-8.27893
th	-8.28053
▁Modi	-8.28306
▁ও	-8.2832
▁under	-8.28427
ব	-8.28431
▁इसके	-8.28514
▁क्या	-8.28588
▁कुछ	-8.2871
▁really	-8.2962
য়	-8.29626
টি	-8.29724
வ	-8.30072
▁अपने	-8.30126
▁10	-8.30585
रा	-8.31152
),	-8.31285
▁if	-8.31618
ப்	-8.31726
▁सरकार	-8.32032
ह	-8.32347
ਰ	-8.32496
▁પર	-8.32674
ਚ	-8.33239
ते	-8.33994
▁ಇದು	-8.34046
ે	-8.34245
or	-8.34267
▁ਨਾਲ	-8.34582
ಗೆ	-8.34636
▁کے	-8.34664
▁हम	-8.35218
▁ಅ	-8.3562
▁थे	-8.36111
▁ਤੋਂ	-8.3638
k	-8.36561
ਮ	-8.36674
▁day	-8.37092
▁হয়	-8.37276
▁made	-8.37413
वा	-8.37448
▁incident	-8.37645
তে	-8.38018
▁दी	-8.38289
▁going	-8.38595
▁மற்றும்	-8.38797
▁Congress	-8.38912
▁हुए	-8.39187
▁4	-8.39322
▁ஒரு	-8.39542
▁আমার	-8.39881
▁much	-8.39984
து	-8.40013
થી	-8.40027
▁After	-8.40106
▁19	-8.40561
▁Prime	-8.40784
▁However	-8.40959
▁taken	-8.41595
▁take	-8.41709
▁आप	-8.41859
▁थी	-8.42038
▁than	-8.42514
મ	-8.42619
▁आहेत	-8.42673
च्या	-8.42736
श	-8.42772
ब	-8.42788
▁life	-8.42849
▁ਪਰ	-8.42985
▁That	-8.4313
S	-8.43682
▁तक	-8.44053
▁सभी	-8.44091
▁5	-8.44144
ನ್	-8.44192
▁different	-8.44942
ll	-8.45142
▁am	-8.45378
▁रूप	-8.45692
▁B	-8.45832
વ	-8.46291
▁three	-8.4635
▁per	-8.4661
▁want	-8.46678
g	-8.46714
▁बहुत	-8.46822
ਤ	-8.46838
▁ये	-8.47046
▁लोगों	-8.47102
রা	-8.47227
તા	-8.47314
▁she	-8.47812
▁C	-8.47812
ਸ	-8.47907
স	-8.48037
ರು	-8.48261
▁પરંતુ	-8.48338
A	-8.48868
▁करते	-8.49258
ो	-8.49464
▁তিনি	-8.49552
▁""	-8.49884
▁does	-8.4992
▁important	-8.49999
ಲು	-8.5001
ात	-8.50118
l	-8.50248
▁ಎಂದು	-8.50274
▁ਨਹੀਂ	-8.50355
▁করা	-8.50402
ದಲ್ಲಿ	-8.50563
▁didn	-8.50899
चा	-8.50902
▁most	-8.50921
ವ	-8.5114
▁As	-8.51209
ती	-8.51244
▁गए	-8.51389
▁She	-8.51413
▁बात	-8.51597
ve	-8.52033
▁ਵੀ	-8.52228
ि	-8.52232
▁সে	-8.5252
चे	-8.52566
कर	-8.53263
▁કરી	-8.53579
▁তবে	-8.5401
▁அ	-8.54163
o	-8.54231
b	-8.54355
▁accused	-8.54367
ಕ	-8.5442
▁काम	-8.54547
ਤੇ	-8.54556
▁व	-8.55096
ல்	-8.55229
▁world	-8.55251
ত	-8.56046
ઓ	-8.56129
▁same	-8.5647
ત	-8.56729
▁இது	-8.56992
▁lot	-8.5714
▁એ	-8.57172
ি	-8.57335
▁ಆ	-8.57592
▁फिल्म	-8.57734
ತ	-8.57763
▁No	-8.5778
▁জন্য	-8.58016
ು	-8.58044
ई	-8.58094
""	-8.58178
ers	-8.58411
▁સાથે	-8.58447
▁number	-8.5855
▁say	-8.58632
க்க	-8.5869
मा	-8.58882
▁Add	-8.58984
ர்	-8.59041
st	-8.59145
en	-8.59366
ی	-8.59421
u	-8.5957
ित	-8.59639
▁K	-8.60009
▁भारतीय	-8.60302
▁मामले	-8.60647
▁दो	-8.60659
ડ	-8.60797
▁yet	-8.60828
સ	-8.60853
▁তার	-8.60962
▁between	-8.60985
2	-8.61031
le	-8.61191
▁Chief	-8.61482
▁us	-8.6181
ation	-8.62079
▁injured	-8.62218
▁see	-8.62286
ರ್	-8.62488
ய	-8.6252
▁make	-8.62867
▁होता	-8.62886
▁হবে	-8.62948
না	-8.63052
▁ਵਿਚ	-8.63168
री	-8.63331
ುವ	-8.63376
c	-8.64253
વા	-8.64345
▁arrested	-8.64415
▁could	-8.64515
▁think	-8.64537
्स	-8.64571
ಲ್	-8.64629
▁کی	-8.64688
▁G	-8.64749
▁when	-8.64938
▁किसी	-8.64974
▁never	-8.65356
h	-8.65375
▁during	-8.65428
▁અ	-8.65429
ए	-8.65533
▁registered	-8.65584
▁How	-8.65649
▁family	-8.65721
▁way	-8.65777
▁help	-8.65941
ಕ್	-8.65966
▁இந்த	-8.66152
▁पहले	-8.66173
▁একটি	-8.66255
▁F	-8.66276
▁where	-8.66423
ர	-8.6647
▁তা	-8.66487
ં	-8.66625
able	-8.66946
નું	-8.67358
த்	-8.67412
▁Both	-8.67598
ும்	-8.6809
ri	-8.68253
ಗ	-8.68295
শ	-8.68383
वर	-8.68565
▁P	-8.6867
डी	-8.68742
▁hospital	-8.68839
▁right	-8.68957
▁An	-8.68971
নি	-8.69528
ar	-8.69613
ਟ	-8.69785
দ	-8.70172
▁come	-8.70548
us	-8.70969
▁done	-8.71061
▁ते	-8.71119
."	-8.71414
▁children	-8.71431
ma	-8.71798
1	-8.71955
ট	-8.71955
या	-8.72212
िक	-8.72509
नी	-8.72615
▁go	-8.727
▁सिंह	-8.72771
ವು	-8.72844
▁करना	-8.72898
B	-8.72923
▁করতে	-8.73094
એ	-8.73139
di	-8.73204
ಯನ್ನು	-8.73255
▁use	-8.7343
▁ਸੀ	-8.73665
▁home	-8.73715
▁বা	-8.73919
ची	-8.73989
টা	-8.74
ਾ	-8.74091
▁राज्य	-8.74285
জ	-8.74427
ಕ್ಕೆ	-8.74464
▁body	-8.74677
▁through	-8.74686
ટ	-8.75117
▁हा	-8.75376
li	-8.75409
▁place	-8.75523
প	-8.75596
▁ਹੋ	-8.75606
પ	-8.75623
▁उनके	-8.75688
▁information	-8.75734
▁"""	-8.75874
▁ਇੱਕ	-8.76016
▁20	-8.76189
▁तरह	-8.76339
▁Khan	-8.764
it	-8.7644
▁सकता	-8.76484
▁चाहिए	-8.7663
ী	-8.76631
க	-8.76843
रे	-8.76857
▁वे	-8.76995
▁सकते	-8.77046
▁present	-8.77159
▁میں	-8.77188
▁द्वारा	-8.77366
જ	-8.77401
ਗ	-8.77428
▁এটা	-8.77467
দের	-8.77486
la	-8.77498
f	-8.77504
▁both	-8.77597
ू	-8.77767
ta	-8.77837
▁दोनों	-8.77863
▁अन्य	-8.77951
তা	-8.78011
ا	-8.78118
ੇ	-8.78176
ಸ	-8.78246
सी	-8.78571
▁हुआ	-8.78755
▁T	-8.78862
▁कम	-8.78865
▁देश	-8.78912
▁लिया	-8.78915
▁even	-8.79107
▁long	-8.79246
▁why	-8.79326
▁part	-8.79462
”	-8.79465
▁while	-8.79536
▁12	-8.79772
▁दिल्ली	-8.79795
▁6	-8.79823
▁मोदी	-8.79866
▁আমরা	-8.79999
▁हूं	-8.80013
▁समय	-8.80391
ೇ	-8.80592
▁আ	-8.80849
am	-8.81051
ಂ	-8.81607
▁कई	-8.81614
p	-8.81644
▁ਕਰ	-8.81654
का	-8.81729
▁होते	-8.81969
▁शामिल	-8.82071
▁જે	-8.82114
▁दर्ज	-8.82204
▁যে	-8.82413
w	-8.82661
▁8	-8.82932
▁still	-8.83135
▁thing	-8.83175
C	-8.83221
া	-8.8341
ನಿ	-8.83491
ियों	-8.83646
▁কিছু	-8.83708
x	-8.83836
na	-8.83993
on	-8.84021
▁must	-8.84074
▁मुझे	-8.84189
▁Narendra	-8.84392
ਜ	-8.84554
▁होने	-8.84559
▁அது	-8.84879
▁spot	-8.85063
ਣ	-8.85145
▁তো	-8.85211
▁women	-8.85212
▁before	-8.8538
▁social	-8.85425
▁ऐसा	-8.85473
▁For	-8.85851
ன்	-8.8589
▁मंत्री	-8.86176
▁कारण	-8.86391
▁હતી	-8.86477
▁used	-8.86609
▁R	-8.86793
ل	-8.86908
ण	-8.86946
▁won	-8.87161
▁जांच	-8.87167
▁হয়েছে	-8.87292
হ	-8.87297
▁those	-8.87481
▁होगा	-8.87521
▁back	-8.8759
▁কথা	-8.8759
▁situation	-8.87614
▁থেকে	-8.87708
टी	-8.87803
க்கு	-8.88286
ur	-8.88292
▁अधिक	-8.88371
▁problem	-8.88484
▁इन	-8.88491
▁matter	-8.88495
ட்	-8.88534
The	-8.88677
▁वाले	-8.88808
▁हुई	-8.88828
ity	-8.88904
▁होती	-8.88982
ت	-8.89024
▁उन्हें	-8.89104
▁few	-8.89123
▁ਕਰਨ	-8.89308
▁started	-8.89392
▁இ	-8.89421
ವಾಗಿ	-8.89447
्	-8.89883
▁Shri	-8.89892
ರಿ	-8.90082
▁এর	-8.90104
த்த	-8.90476
ख	-8.90588
த்தில்	-8.90697
▁اور	-8.90739
im	-8.90832
▁love	-8.90925
M	-8.91113
ೆ	-8.91247
िंग	-8.9154
▁D	-8.91662
ஸ்	-8.91684
શ	-8.917
▁given	-8.91747
▁health	-8.91752
▁নয়	-8.91781
▁E	-8.91825
▁શું	-8.92162
ಲ	-8.92233
▁अपनी	-8.92252
ಯಲ್ಲಿ	-8.92275
▁de	-8.92276
ಡ	-8.92312
▁Pakistan	-8.92447
யில்	-8.92622
▁તમે	-8.92632
▁last	-8.92968
▁N	-8.93139
man	-8.93157
el	-8.93159
ುತ್ತದೆ	-8.93184
▁करता	-8.9326
▁President	-8.93267
से	-8.93267
D	-8.93555
▁died	-8.93661
ಟ್	-8.93819
▁media	-8.93931
▁things	-8.93956
▁न	-8.93968
ें	-8.94354
▁great	-8.94394
▁meeting	-8.94427
at	-8.94759
मध्ये	-8.94763
▁আছে	-8.9482
▁happened	-8.94949
,"	-8.95515
▁court	-8.9559
▁New	-8.95661
▁Pradesh	-8.9571
ر	-8.95813
ra	-8.95986
▁anything	-8.96017
▁तर	-8.96032
▁કે	-8.96234
▁प्र	-8.96274
ಮ	-8.96319
▁If	-8.96352
ਸ਼	-8.96392
बा	-8.96464
il	-8.9659
▁Government	-8.96605
ਦ	-8.96628
▁party	-8.96629
GB	-8.96687
▁मी	-8.96837
3	-8.96885
டி	-8.96891
▁ছিল	-8.97032
▁Why	-8.97037
फ	-8.97046
ti	-8.9729
▁অ	-8.97317
G	-8.97343
ul	-8.97543
जी	-8.97554
▁ਕੀਤਾ	-8.9773
▁ஆ	-8.97832
▁always	-8.97866
te	-8.9801
▁ब	-8.98219
▁On	-8.98358
▁நான்	-8.98646
▁इसमें	-8.98673
se	-8.98895
,”	-8.98927
▁Gandhi	-8.99079
▁”	-8.99097
▁खिलाफ	-8.99099
▁each	-8.99108
र्	-8.99116
▁15	-8.99127
▁State	-8.99227
▁રીતે	-8.99251
ic	-8.9952
▁investigation	-8.99876
،	-8.99877
▁सर्व	-8.99993
▁100	-9.00012
ਤਾ	-9.00123
▁काही	-9.003
▁every	-9.00305
▁ਅ	-9.00481
ಲಿ	-9.00722
▁अभी	-9.00791
%	-9.01078
▁Be	-9.01142
▁question	-9.01536
▁बारे	-9.01666
▁सबसे	-9.01875
to	-9.02064
▁करें	-9.02163
वी	-9.02305
▁ਤੇ	-9.02388
के	-9.02401
▁ਉਨ੍ਹਾਂ	-9.02521
▁video	-9.02558
▁ಅವರು	-9.02569
▁got	-9.02768
▁घटना	-9.02826
ਆਂ	-9.02844
▁તો	-9.02907
રી	-9.02966
ent	-9.03109
▁इससे	-9.03112
▁कांग्रेस	-9.03258
▁Also	-9.03436
▁team	-9.03487
▁इसे	-9.03513
ਜ਼	-9.03568
গ	-9.03739
ne	-9.03774
▁crore	-9.03783
িত	-9.03913
K	-9.0394
ય	-9.03958
தி	-9.0403
▁Mumbai	-9.04086
▁several	-9.04291
ಶ	-9.04322
▁minister	-9.04439
ி	-9.04475
▁available	-9.04683
▁एवं	-9.04748
ਿਆ	-9.04771
ರಾ	-9.04953
▁7	-9.05132
दा	-9.0537
ad	-9.05459
▁ਉਹ	-9.05548
▁again	-9.05707
▁second	-9.05826
▁जाता	-9.05986
▁ಒಂದು	-9.06095
▁V	-9.06191
▁আমাদের	-9.062
▁person	-9.06206
ment	-9.06341
ਰਾ	-9.06468
ion	-9.06672
દ	-9.06897
ા	-9.06908
वि	-9.06966
▁বি	-9.0728
▁बताया	-9.07298
▁ਹੀ	-9.07506
▁पास	-9.07511
We	-9.07538
id	-9.07545
▁students	-9.07622
...	-9.07664
▁His	-9.07736
sh	-9.07812
्य	-9.07903
▁शुरू	-9.07936
▁पा	-9.08028
▁special	-9.08262
▁ಮಾಡ	-9.0835
▁হয়ে	-9.08366
▁Kumar	-9.08417
▁Because	-9.08503
ো	-9.08711
▁50	-9.08746
▁ए	-9.08767
ن	-9.08798
▁National	-9.08848
सा	-9.08944
ہ	-9.09075
4	-9.09091
▁ਬਹੁਤ	-9.09225
pur	-9.09274
▁soon	-9.09312
z	-9.09326
V	-9.09426
▁far	-9.09492
lo	-9.09494
ன	-9.09677
ಾ	-9.09703
▁क्षेत्र	-9.0973
▁because	-9.0974
▁including	-9.09774
▁க	-9.09779
▁days	-9.09976
▁নেই	-9.10064
▁ನಾನು	-9.10194
களை	-9.10245
▁तीन	-9.10425
▁लोग	-9.10523
▁वि	-9.10538
▁ನೀವು	-9.10565
▁फिर	-9.10599
ಿದೆ	-9.10687
L	-9.10692
▁অনেক	-9.10698
ਵ	-9.10864
▁result	-9.10927
ச்	-9.10931
▁high	-9.11083
▁understand	-9.11085
0	-9.11121
▁প্র	-9.11164
ਦਾ	-9.11261
▁प्रधानमंत्री	-9.11269
▁district	-9.11269
▁जारी	-9.11275
▁সব	-9.1128
▁ਗਿਆ	-9.11296
▁যা	-9.11336
▁easy	-9.11961
▁Re	-9.12012
▁decision	-9.1223
ગ	-9.12305
▁सब	-9.12439
▁प्रदेश	-9.12519
▁এক	-9.12565
▁took	-9.12674
▁happen	-9.12702
▁area	-9.12743
ಡಿ	-9.12832
ro	-9.12925
▁God	-9.1297
▁Do	-9.13182
N	-9.1342
ir	-9.13449
লি	-9.13455
▁cases	-9.13505
▁possible	-9.13597
ிய	-9.13671
ங்கள்	-9.13723
▁nothing	-9.13743
ಗಳಲ್ಲಿ	-9.13757
ਹ	-9.1379
▁another	-9.13978
▁रुपये	-9.14031
▁later	-9.14255
ive	-9.14262
▁action	-9.14274
▁ಅದು	-9.1434
थ	-9.14484
▁उ	-9.14491
▁four	-9.1453
ம	-9.1454
ல	-9.14588
▁various	-9.1463
▁chief	-9.1468
ਡ	-9.14771
▁true	-9.15086
age	-9.15105
▁ਸ	-9.15111
T	-9.15113
ओं	-9.15138
மாக	-9.1518
ळ	-9.15253
P	-9.15298
▁तथा	-9.15381
U	-9.15386
লা	-9.15473
▁killed	-9.15599
و	-9.1571
▁doing	-9.15739
▁भाजपा	-9.15876
રા	-9.15935
ਮਾ	-9.1598
ப	-9.16018
ரி	-9.16103
▁11	-9.16226
▁lakh	-9.16611
▁doesn	-9.16789
▁किए	-9.1694
पी	-9.17066
▁treatment	-9.17137
5	-9.17184
▁मला	-9.17186
▁बीच	-9.17188
▁নিয়ে	-9.17217
▁seen	-9.17229
▁Shah	-9.17375
ಸಿ	-9.17375
த	-9.17506
وں	-9.17528
சி	-9.17862
वे	-9.17945
▁look	-9.18019
ੋ	-9.18165
மா	-9.18181
ಿದ್ದಾರೆ	-9.18331
ted	-9.18357
ில்	-9.18395
▁give	-9.18468
▁Court	-9.18526
▁এটি	-9.18555
▁&	-9.18579
ವಿ	-9.18582
্য	-9.1877
م	-9.18777
▁name	-9.18844
▁L	-9.1892
▁found	-9.19164
▁हालांकि	-9.19228
▁18	-9.19284
▁उनकी	-9.1931
▁प	-9.19342
▁लेकर	-9.19362
▁next	-9.19424
▁due	-9.19424
▁best	-9.19437
▁end	-9.19621
एं	-9.19623
▁Union	-9.19844
▁என்று	-9.19984
বি	-9.20377
ish	-9.20393
स्	-9.20428
▁बार	-9.20593
W	-9.2062
▁development	-9.20712
ate	-9.20795
▁Punjab	-9.20868
▁ਕੀ	-9.20913
ઝ	-9.21082
ણ	-9.21125
▁ಬಗ್ಗೆ	-9.21129
ா	-9.21264
ನಾ	-9.21372
்	-9.21597
▁To	-9.21608
▁काफी	-9.21668
▁હું	-9.21677
▁PM	-9.21839
▁سے	-9.21873
▁change	-9.21921
ை	-9.2194
▁কোন	-9.22271
▁un	-9.22357
▁process	-9.22407
de	-9.22537
▁wasn	-9.22561
ध	-9.22623
ರೆ	-9.22689
▁further	-9.2287
د	-9.22906
ಬೇಕು	-9.22926
▁others	-9.22969
ਪ	-9.2337
et	-9.23381
▁उसके	-9.23459
▁આવે	-9.23536
ha	-9.23538
co	-9.23563
▁13	-9.23595
▁दौरान	-9.23685
▁power	-9.23907
▁কী	-9.23979
চ	-9.24075
ಯು	-9.24157
િ	-9.2429
▁16	-9.24584
வே	-9.24684
রি	-9.24709
▁small	-9.24717
▁છો	-9.2474
▁cannot	-9.24788
▁ਕਿਹਾ	-9.24864
ਰੀ	-9.24939
▁support	-9.24945
▁उसे	-9.2498
▁मात्र	-9.24981
ವಾಗಿದೆ	-9.24992
▁यहां	-9.25039
▁death	-9.25072
ನ್ನು	-9.25124
▁मुख्यमंत्री	-9.2517
ंग	-9.25245
ನೆ	-9.25334
▁30	-9.25381
வில்லை	-9.2542
வை	-9.25461
▁–	-9.2549
▁ப	-9.25901
शा	-9.2594
मी	-9.26034
▁issue	-9.26075
▁called	-9.26168
ch	-9.26201
ந்த	-9.26595
▁example	-9.26652
▁city	-9.26699
▁U	-9.26706
▁system	-9.26758
ವಾದ	-9.2678
▁already	-9.26849
▁કરવામાં	-9.26917
▁regard	-9.2696
▁something	-9.26996
▁money	-9.26997
ਨਾ	-9.27005
▁کو	-9.27096
▁post	-9.27157
▁large	-9.27209
್	-9.27234
▁ક	-9.27289
est	-9.2735
ட	-9.275
F	-9.27542
▁आई	-9.27604
▁जाने	-9.27641
ভাবে	-9.27726
up	-9.27767
ಯಾ	-9.27885
▁According	-9.27906
▁sent	-9.27953
▁তাদের	-9.27987
▁members	-9.28003
▁food	-9.28023
লে	-9.2805
▁con	-9.2812
▁पूर्व	-9.28125
ফ	-9.28199
▁সঙ্গে	-9.28271
▁ಅವರ	-9.28292
▁હોય	-9.28357
ਖ	-9.28379
▁farmers	-9.28568
▁happy	-9.28758
20	-9.28776
▁ہے	-9.28858
▁ਉਸ	-9.28952
ति	-9.28956
as	-9.29129
ச	-9.29161
▁दे	-9.29295
▁Kapoor	-9.29319
▁De	-9.29337
▁around	-9.29354
▁ਕੀਤੀ	-9.29377
મા	-9.29448
vi	-9.29503
▁श्री	-9.29515
▁आपको	-9.29528
মা	-9.29554
ance	-9.29622
ia	-9.29639
E	-9.29718
▁কাজ	-9.29776
▁हर	-9.29804
▁टीम	-9.29847
▁child	-9.29942
▁હતા	-9.3002
▁ਇਕ	-9.30024
▁reason	-9.30025
▁इसका	-9.30043
H	-9.30094
▁official	-9.30275
▁मौत	-9.30358
ণ	-9.30392
▁હતો	-9.30482
રો	-9.30601
લી	-9.30631
▁মধ্যে	-9.30797
▁মনে	-9.30856
▁necessary	-9.3088
▁cent	-9.30932
▁role	-9.30972
▁খুব	-9.30979
ya	-9.31008
▁down	-9.3101
▁அவர்	-9.3104
▁set	-9.31056
▁former	-9.31074
▁ખૂબ	-9.31099
ಪ	-9.31136
▁வேண்டும்	-9.31165
um	-9.31195
▁answer	-9.31198
▁quite	-9.31345
নে	-9.31358
સી	-9.31376
▁among	-9.31377
▁actually	-9.31387
▁M	-9.31554
ಡ್	-9.31723
ड़	-9.31759
▁जाएगा	-9.31786
▁पार्टी	-9.31874
হা	-9.31885
▁asked	-9.32042
▁big	-9.32139
▁કરે	-9.32158
ੰ	-9.32159
da	-9.32176
ਬ	-9.32203
বে	-9.32232
▁14	-9.32392
▁ಅಥವಾ	-9.32413
▁उत्तर	-9.32503
6	-9.32599
▁currently	-9.32654
▁off	-9.32662
O	-9.32781
▁order	-9.32887
ಳ	-9.32917
▁दिन	-9.3292
্যা	-9.32931
ਏ	-9.33011
me	-9.33021
ry	-9.33022
ದು	-9.33034
ک	-9.33078
लि	-9.33227
▁બે	-9.33373
▁isn	-9.33602
▁Bank	-9.33712
▁ન	-9.33723
▁काय	-9.33734
யை	-9.33789
लो	-9.33983
▁own	-9.34051
ter	-9.34118
▁मुख्य	-9.34267
▁everything	-9.34357
▁US	-9.34388
ting	-9.34389
யா	-9.34469
▁ಹ	-9.34531
▁told	-9.34572
▁खान	-9.34764
▁find	-9.34823
▁सं	-9.34894
▁என்ன	-9.34898
▁করি	-9.34908
▁keep	-9.34963
ठ	-9.34992
▁કોઈ	-9.35015
▁இல்லை	-9.35022
▁better	-9.35131
▁hard	-9.35192
ओ	-9.35207
மான	-9.35443
R	-9.35493
▁विचार	-9.35578
▁These	-9.35641
িক	-9.35713
▁main	-9.35727
▁সেই	-9.35734
ness	-9.35819
কা	-9.35879
▁woman	-9.35884
▁held	-9.35941
લા	-9.36067
▁Then	-9.36219
வும்	-9.36253
गा	-9.36328
▁नाम	-9.3654
த்தை	-9.36541
ಬಹುದು	-9.36675
▁Ministry	-9.36902
-19	-9.36929
রে	-9.3698
हा	-9.36986
ਲਾ	-9.37047
स्ट	-9.37075
▁working	-9.37094
ார்	-9.3717
▁free	-9.3728
बी	-9.37532
▁આવી	-9.37633
ाने	-9.3767
gi	-9.37738
▁કરવા	-9.37747
▁सु	-9.37752
▁जब	-9.37937
বার	-9.3794
ಣ	-9.37971
▁विकास	-9.37992
ೂ	-9.38057
▁least	-9.38128
पा	-9.38194
ಮಾ	-9.38257
is	-9.38258
▁J	-9.38258
j	-9.38324
ाच्या	-9.38506
মি	-9.38543
▁point	-9.38596
▁came	-9.3866
▁कार्य	-9.38689
▁जानकारी	-9.38818
▁house	-9.38996
▁become	-9.39026
▁একটা	-9.39069
mo	-9.39116
जन	-9.39169
▁following	-9.39172
▁fire	-9.39206
min	-9.39277
રે	-9.39307
▁সময়	-9.39347
ga	-9.39481
▁করেন	-9.39498
ಿಲ್ಲ	-9.39578
▁अलावा	-9.39726
▁विशेष	-9.39802
மை	-9.39814
▁mother	-9.39825
▁man	-9.39846
▁went	-9.39987
टा	-9.40114
▁persons	-9.40368
▁accident	-9.40373
▁পারে	-9.4039
कार	-9.40577
▁car	-9.40609
র্	-9.40643
ून	-9.40751
▁ನಾವು	-9.40769
un	-9.40864
▁नि	-9.40876
▁त्या	-9.40885
▁simple	-9.4092
ப்பு	-9.41095
▁known	-9.41116
ce	-9.41235
▁प्रकार	-9.41288
▁શકે	-9.41319
▁प्रति	-9.41351
▁25	-9.41392
▁H	-9.41411
ni	-9.4146
▁સ	-9.41548
▁five	-9.4168
ছে	-9.41689
ant	-9.41714
▁father	-9.41726
வா	-9.41766
▁Kashmir	-9.41786
▁کا	-9.41789
ਇ	-9.41828
▁movie	-9.41861
▁leader	-9.41885
▁ਆ	-9.4205
ba	-9.42052
ચ	-9.42068
को	-9.42109
v	-9.42169
▁अस्पताल	-9.42207
▁Maharashtra	-9.42368
બ	-9.42399
ु	-9.42413
▁include	-9.42435
ವಾ	-9.42448
▁ਜਾ	-9.42603
ॉ	-9.42627
▁વધુ	-9.42875
▁believe	-9.43419
▁ਮੰਤਰੀ	-9.43466
▁problems	-9.43495
▁सा	-9.43673
▁start	-9.43776
▁आपण	-9.43869
▁together	-9.43998
સ્	-9.44095
▁questions	-9.44109
▁dis	-9.44133
झ	-9.44301
▁countries	-9.44303
▁times	-9.44347
▁সেটা	-9.44402
▁9	-9.44409
ies	-9.44413
ary	-9.44423
ಹ	-9.44431
▁જો	-9.44493
▁मौके	-9.44508
ty	-9.44566
િત	-9.44725
தா	-9.44763
जा	-9.44763
▁One	-9.44771
▁filed	-9.44777
▁ம	-9.44816
▁मु	-9.44858
ج	-9.44862
▁বলে	-9.44889
▁अध्यक्ष	-9.44985
ے	-9.44995
ವೇ	-9.45025
▁president	-9.45168
▁oil	-9.45187
▁রয়েছে	-9.45223
ver	-9.45421
ab	-9.45515
▁‘‘	-9.45613
▁इसलिए	-9.45649
▁যায়	-9.45809
▁થાય	-9.45849
tion	-9.45869
▁years	-9.45907
ડી	-9.45929
▁Dr	-9.45954
एल	-9.46001
▁face	-9.46153
▁across	-9.46264
ড	-9.46296
▁वाली	-9.46328
▁pro	-9.46645
▁પછી	-9.46655
▁करोड़	-9.46743
▁কোনো	-9.46807
ist	-9.46855
▁কেন	-9.4689
▁घर	-9.46906
▁আপনি	-9.46911
તી	-9.4693
▁ಮ	-9.46956
▁tell	-9.47004
ated	-9.47022
hi	-9.47104
ಟಿ	-9.47113
ಪ್	-9.47291
अ	-9.47337
ating	-9.47338
ci	-9.47365
ine	-9.47415
▁भाग	-9.47631
য়ে	-9.47697
હ	-9.47706
▁उपलब्ध	-9.479
வு	-9.47943
▁local	-9.47964
▁wife	-9.47971
▁ಯಾವುದೇ	-9.48117
س	-9.48119
▁Could	-9.48136
▁public	-9.48137
▁केली	-9.48141
▁ನಿಮ್ಮ	-9.48248
▁since	-9.48325
▁attack	-9.48381
▁occasion	-9.4842
की	-9.48433
▁p	-9.48501
▁Sharma	-9.48519
▁ಹಾಗೂ	-9.48656
▁f	-9.48756
▁उस	-9.48769
▁पाकिस्तान	-9.48785
▁report	-9.48819
▁difficult	-9.48858
▁मुंबई	-9.48887
ற	-9.49121
▁Ram	-9.49172
▁তারা	-9.49303
সি	-9.49427
▁Ja	-9.49505
▁reached	-9.49567
ಿಸ	-9.49625
▁Act	-9.49733
▁complaint	-9.49744
▁along	-9.49745
ப்ப	-9.49865
▁Na	-9.49919
▁તેથી	-9.49944
▁असे	-9.49958
▁चुनाव	-9.4999
शी	-9.50032
wa	-9.5005
ಗಳಿಗೆ	-9.50147
▁महिला	-9.50176
▁प्रमुख	-9.50225
▁इसकी	-9.5026
▁without	-9.50313
प्र	-9.50319
्या	-9.50355
▁everyone	-9.50381
ز	-9.50395
्‍	-9.50471
▁પ્ર	-9.50567
▁इ	-9.50733
7	-9.50941
▁ਜੋ	-9.5106
ೋ	-9.51164
▁cost	-9.51248
▁देने	-9.51325
▁ಇಲ್ಲ	-9.51346
▁course	-9.51419
▁price	-9.51454
ತೆ	-9.51458
▁करण्यात	-9.51519
िया	-9.5153
▁ಇ	-9.51756
▁security	-9.51793
▁ಪ್ರ	-9.51827
▁total	-9.51834
উ	-9.51856
▁হল	-9.51919
▁পা	-9.51967
▁Gujarat	-9.52196
▁phone	-9.52247
▁م	-9.52341
▁Rahul	-9.52396
▁year	-9.52404
ol	-9.52433
▁Tamil	-9.52442
▁let	-9.52442
▁ले	-9.52442
லி	-9.52528
▁away	-9.52628
▁40	-9.5267
led	-9.52691
ीय	-9.52801
▁form	-9.52838
வி	-9.52887
தான்	-9.53041
▁national	-9.53111
யாக	-9.53249
▁experience	-9.53283
▁condition	-9.53343
▁Many	-9.53346
ش	-9.53371
9	-9.53382
▁স	-9.5347
op	-9.53545
▁सूचना	-9.53661
▁हमारे	-9.53675
▁Who	-9.53815
▁पता	-9.53948
▁business	-9.53952
gu	-9.54028
▁செய்ய	-9.54103
▁ந	-9.54272
▁story	-9.5445
▁फ	-9.54463
ौ	-9.54533
ac	-9.54563
▁ग	-9.54576
▁People	-9.54652
रो	-9.54704
▁company	-9.54772
▁disease	-9.54866
▁today	-9.54891
▁மேலும்	-9.54929
▁says	-9.55015
ધ	-9.55091
વી	-9.55262
▁Man	-9.55268
J	-9.55277
▁son	-9.55327
கி	-9.55352
કા	-9.55397
▁24	-9.55427
ಭ	-9.55482
્સ	-9.55526
▁सुरक्षा	-9.55718
ot	-9.55852
▁ভালো	-9.55868
▁हमें	-9.55899
ੈ	-9.55975
▁क्योंकि	-9.56036
▁اس	-9.56036
ಮಿ	-9.56095
▁गांधी	-9.56158
▁થઈ	-9.56225
8	-9.56302
▁increase	-9.56332
▁ਹੋਰ	-9.56419
▁needs	-9.56424
▁নি	-9.56457
▁wrong	-9.56472
▁added	-9.56492
▁O	-9.56606
▁states	-9.56671
▁पूरी	-9.56683
▁நீங்கள்	-9.56691
▁kind	-9.56724
▁little	-9.56924
▁Ra	-9.57022
ುವುದು	-9.57101
▁होगी	-9.57105
ಮ್	-9.57123
ತಿ	-9.57303
ੀਆਂ	-9.57303
▁बन	-9.57313
ரா	-9.57351
▁news	-9.57373
▁leaders	-9.57412
▁may	-9.5749
ಿದ	-9.57607
▁play	-9.57628
ਕਾ	-9.5768
▁मामला	-9.57693
▁|	-9.577
▁राष्ट्रीय	-9.57792
▁Mo	-9.57818
▁चल	-9.57838
आर	-9.57905
▁informed	-9.58065
▁reported	-9.58126
▁અથવા	-9.5828
▁वहीं	-9.58303
▁હતું	-9.58362
▁means	-9.58404
our	-9.58658
▁2020	-9.58698
ंड	-9.58738
▁করার	-9.5882
▁پر	-9.58993
ाचा	-9.59008
ਲੀ	-9.59033
▁Sabha	-9.59105
▁political	-9.59143
▁17	-9.59156
ja	-9.59161
ਓ	-9.5918
▁seats	-9.59228
▁level	-9.59271
▁कुमार	-9.59308
▁real	-9.59311
▁உ	-9.59468
▁ਸਭ	-9.59532
▁হচ্ছে	-9.59614
▁law	-9.59914
▁পর	-9.5996
ঁ	-9.60097
▁जबकि	-9.60131
વે	-9.60149
ous	-9.60151
▁getting	-9.60187
▁करेंगे	-9.60187
ع	-9.60246
▁जैसे	-9.60258
▁event	-9.60357
ದಿಂದ	-9.6038
▁अधिकारी	-9.60448
ಿಗೆ	-9.60477
পি	-9.60485
த்து	-9.60518
ः	-9.60523
डा	-9.60549
▁Sa	-9.60566
ਟੀ	-9.60607
va	-9.60719
▁open	-9.60755
▁केले	-9.60841
र्स	-9.60942
be	-9.60981
▁areas	-9.61074
पुर	-9.61091
▁Bollywood	-9.61134
ઈ	-9.61168
জন	-9.61193
pa	-9.61225
▁connection	-9.613
▁कैसे	-9.61325
▁কারণ	-9.61378
less	-9.61398
▁Ba	-9.61413
யும்	-9.61575
▁officials	-9.61596
ே	-9.61655
ಲಾ	-9.61669
ਸੀ	-9.61723
▁केंद्र	-9.61879
ಿತ	-9.61957
▁आगे	-9.6196
▁ਸਿੰਘ	-9.6197
▁अपना	-9.61982
▁moment	-9.6202
▁control	-9.6203
▁received	-9.62055
ge	-9.62091
▁તેઓ	-9.62093
▁लाख	-9.62158
▁बैठक	-9.62201
দা	-9.62236
▁मेरे	-9.62318
▁मंत्रालय	-9.62327
ak	-9.62387
▁China	-9.6239
▁Don	-9.62455
ling	-9.62533
▁camera	-9.62608
▁list	-9.62652
‍	-9.62692
tra	-9.62715
▁ವಿ	-9.62832
▁मदद	-9.62856
▁इंडिया	-9.6293
sa	-9.63032
ટી	-9.63119
ाची	-9.63125
मे	-9.63186
▁आरोपी	-9.63214
▁जीवन	-9.6331
▁ಆಗ	-9.63346
▁Me	-9.63398
छ	-9.63562
▁वो	-9.63582
▁ਕੁਝ	-9.63639
▁often	-9.6369
▁immediately	-9.63725
ળ	-9.63784
▁World	-9.63944
▁lead	-9.64035
▁ओर	-9.64039
▁West	-9.64152
▁actor	-9.64152
ভা	-9.64251
▁उपयोग	-9.64292
ছি	-9.64314
▁उप	-9.64433
▁else	-9.64509
▁அதை	-9.64544
டு	-9.64694
▁care	-9.64724
▁announced	-9.64742
மே	-9.64785
गी	-9.64838
▁shall	-9.64884
ful	-9.64933
ਦੀ	-9.64984
▁now	-9.65061
ட்ட	-9.65078
साठी	-9.65102
▁When	-9.65134
ভ	-9.65169
▁मैंने	-9.65192
▁future	-9.65206
▁ਆਪਣੇ	-9.65234
বা	-9.65247
ಪಿ	-9.6525
▁মা	-9.65402
▁આપણે	-9.65442
▁ನಂತರ	-9.65442
घ	-9.65574
▁बदल	-9.65602
কার	-9.65617
னர்	-9.65617
થ	-9.65659
ग्	-9.65665
_(	-9.65674
▁win	-9.65711
▁Two	-9.65785
▁स्थिति	-9.65843
ji	-9.65846
▁કરો	-9.65971
▁couldn	-9.65986
▁mind	-9.6599
જા	-9.66095
யின்	-9.6618
ho	-9.66198
▁period	-9.66202
▁তাই	-9.6621
▁beautiful	-9.66267
ਪੀ	-9.66341
▁using	-9.66343
▁statement	-9.66374
nt	-9.66488
ਨੀ	-9.66544
क्	-9.66567
▁station	-9.66582
▁चार	-9.66611
ર્	-9.66637
▁আপনার	-9.66961
▁Co	-9.66969
▁ਮੈਂ	-9.67017
▁Con	-9.67031
▁however	-9.6704
▁झाले	-9.67101
▁संख्या	-9.67107
▁बि	-9.67126
▁जी	-9.67174
களில்	-9.67192
વામાં	-9.67266
▁எனக்கு	-9.67319
▁W	-9.67335
▁पी	-9.67339
ਦੇ	-9.67384
▁તેને	-9.67409
▁गिरफ्तार	-9.67558
▁अनेक	-9.6759
▁visit	-9.67702
▁सि	-9.67776
▁सी	-9.67777
▁Bengal	-9.67778
▁Ha	-9.6787
ster	-9.67899
ੱ	-9.68044
ष	-9.68086
வர்	-9.68142
ंट	-9.68185
দি	-9.68193
વો	-9.68261
ाचे	-9.68291
▁top	-9.68296
▁नरेंद्र	-9.68312
mi	-9.68318
▁comes	-9.6832
▁taking	-9.68352
▁ਬ	-9.68377
▁left	-9.6845
▁cause	-9.6852
মান	-9.68629
▁এমন	-9.68732
ಯೂ	-9.68739
▁South	-9.68762
▁केंद्रीय	-9.68782
bi	-9.6885
▁વાત	-9.68869
▁data	-9.68924
▁হতে	-9.6897
ಯೇ	-9.69157
▁date	-9.69245
▁Pro	-9.69327
▁कपूर	-9.6962
ै	-9.69625
ح	-9.69677
▁परिवार	-9.69685
▁ਕੋਈ	-9.69748
્યા	-9.69774
▁ready	-9.69792
▁job	-9.69799
லை	-9.69832
▁તેના	-9.69941
▁ਸਾਰੇ	-9.7005
नि	-9.70077
▁मीडिया	-9.70127
▁third	-9.70149
ુ	-9.70185
▁દ્વારા	-9.70314
ক্ষ	-9.70337
▁head	-9.70342
▁ज्यादा	-9.70369
▁sure	-9.70453
जि	-9.70462
ங்க	-9.70491
▁வி	-9.70558
son	-9.70627
ಲ್ಲ	-9.70636
▁road	-9.70704
▁यांनी	-9.70761
ಕಿ	-9.70828
કો	-9.70881
▁जे	-9.70905
▁बैंक	-9.70987
ಕ್ಷ	-9.71009
▁نے	-9.7106
▁co	-9.71069
▁ನ	-9.71136
ਫ	-9.71154
▁எ	-9.71168
▁ನನಗೆ	-9.71209
du	-9.7126
▁नेता	-9.7126
▁प्राप्त	-9.71289
▁land	-9.71342
கை	-9.7141
▁education	-9.71506
▁either	-9.71508
▁Secretary	-9.71525
۔	-9.71597
▁घायल	-9.71616
ேன்	-9.71659
▁daughter	-9.71681
ಲ್ಲಿ	-9.71697
▁services	-9.71777
टे	-9.71796
▁design	-9.71893
▁huge	-9.71966
▁entire	-9.71971
▁ਕੇ	-9.72122
▁released	-9.72124
no	-9.72263
▁கா	-9.72348
▁सकती	-9.72501
பி	-9.72511
▁project	-9.72543
▁कार्यक्रम	-9.72581
tic	-9.72608
স্	-9.72629
the	-9.72645
go	-9.72691
▁संबंध	-9.72713
▁clear	-9.72819
▁आरोप	-9.72857
▁परंतु	-9.72893
ரு	-9.72998
જી	-9.73006
▁account	-9.73018
▁ਗਈ	-9.7304
ap	-9.73063
har	-9.7311
▁school	-9.73157
▁विभाग	-9.73201
▁based	-9.73295
▁ਪ੍ਰ	-9.73345
▁પ	-9.73408
▁blood	-9.73451
मान	-9.73493
ka	-9.73557
▁dead	-9.73567
रू	-9.73568
▁light	-9.73571
▁अनुसार	-9.7359
▁coming	-9.73597
▁amount	-9.73658
স্ত	-9.73676
▁केवल	-9.7374
▁সা	-9.73754
তি	-9.73761
ੁ	-9.73794
மி	-9.73814
ಜಿ	-9.73915
▁talk	-9.7393
।"	-9.73955
▁Ka	-9.7396
ਤੀ	-9.74061
▁ಕ	-9.74075
ধ	-9.7412
▁তাঁর	-9.74142
ਈ	-9.74167
▁High	-9.74168
▁heart	-9.74258
▁कंपनी	-9.74259
▁কোনও	-9.74343
ಲಾಗಿದೆ	-9.74388
ার	-9.74402
▁Any	-9.7441
he	-9.7446
▁जिसमें	-9.74478
▁feel	-9.74482
▁आले	-9.74491
▁Su	-9.74507
▁बड़ी	-9.74536
জি	-9.74689
ٹ	-9.74789
pe	-9.74791
ால்	-9.74808
▁સા	-9.7482
গুলি	-9.74823
▁நி	-9.74829
▁ச	-9.74876
▁thought	-9.74928
ज़	-9.74929
▁La	-9.74973
▁Ma	-9.74984
ल्या	-9.74999
▁सो	-9.75001
▁শুরু	-9.7505
▁whole	-9.7508
▁बस	-9.75188
▁General	-9.75216
▁Let	-9.75256
▁ভাল	-9.75267
▁Ro	-9.7531
▁elections	-9.7534
▁ಎಲ್ಲಾ	-9.75361
দিন	-9.7539
த்தின்	-9.75411
king	-9.75549
क्ष	-9.75564
্	-9.7558
con	-9.75683
▁bad	-9.75691
▁provided	-9.75694
▁ಹೇಳ	-9.75703
It	-9.75708
▁fact	-9.75741
▁air	-9.7575
▁ऑफ	-9.75866
old	-9.75903
સે	-9.75917
▁`	-9.75935
kar	-9.75971
▁পুলিশ	-9.76006
ure	-9.76031
▁University	-9.7605
ું	-9.76088
▁friends	-9.76098
ढ	-9.76141
ப்பட்ட	-9.76166
▁show	-9.76207
ف	-9.76252
▁नई	-9.76287
ावर	-9.76291
▁human	-9.76307
கா	-9.76309
▁எனவே	-9.76352
▁फोन	-9.76365
▁কাছে	-9.76438
▁ਦੀਆਂ	-9.76442
▁saying	-9.76498
▁try	-9.76542
ಜ	-9.76571
ق	-9.76618
ਵਾ	-9.76632
MP	-9.76665
पे	-9.7672
▁तहत	-9.76783
▁બધા	-9.76788
▁making	-9.76806
▁बे	-9.76812
▁Bangladesh	-9.76846
per	-9.76889
▁hand	-9.76935
▁Health	-9.76945
णे	-9.76949
▁बना	-9.77127
▁parents	-9.77133
િક	-9.77186
▁केला	-9.77324
▁गु	-9.77375
િંગ	-9.77384
▁ಮೇಲೆ	-9.77438
▁योजना	-9.77552
hu	-9.77611
▁live	-9.77629
ाला	-9.77732
▁કામ	-9.77745
▁लोक	-9.77792
ಿರುವ	-9.77827
▁ਹਾਂ	-9.77843
▁அந்த	-9.77961
ப்பட	-9.77983
খ	-9.77998
▁read	-9.78
▁provide	-9.78009
ಾಗ	-9.78041
▁night	-9.78152
▁உள்ள	-9.78159
po	-9.78171
▁সাথে	-9.78223
▁प्रतिशत	-9.78268
▁private	-9.78269
▁ನೀಡ	-9.78285
ડા	-9.78303
▁major	-9.78319
day	-9.78448
ತಾ	-9.78556
▁series	-9.78621
▁ಎ	-9.78632
▁put	-9.78645
▁Test	-9.78653
▁issued	-9.78659
▁ਭਾਰਤ	-9.787
▁doctor	-9.78752
ઇ	-9.78806
ਲੇ	-9.78813
ah	-9.78898
▁21	-9.78901
▁candidates	-9.78925
ite	-9.78935
▁products	-9.78952
wi	-9.78991
▁आज	-9.79079
▁Home	-9.79084
્	-9.79112
▁might	-9.79143
▁खूप	-9.79168
▁Z	-9.79266
▁shared	-9.79297
ತ್	-9.79327
▁driver	-9.79396
टर	-9.79415
▁Jammu	-9.79582
▁results	-9.79804
▁பல	-9.79832
▁Some	-9.79888
ண	-9.79907
▁Actually	-9.79944
▁माहिती	-9.79961
று	-9.80072
▁த	-9.8009
ின்	-9.80146
▁अलग	-9.80158
▁viral	-9.80163
▁Am	-9.80167
▁পরে	-9.8017
▁details	-9.80237
▁कभी	-9.80263
ುವುದಿಲ್ಲ	-9.8031
▁required	-9.80314
▁என	-9.80319
▁pay	-9.80329
▁group	-9.80513
▁आवश्यक	-9.80557
▁truth	-9.80565
▁Bo	-9.80587
▁जरूरत	-9.80667
▁serious	-9.80769
दी	-9.80806
▁ਤੁਸੀਂ	-9.80834
उ	-9.80837
▁लगा	-9.80866
▁बंद	-9.80916
ાઈ	-9.81014
▁ex	-9.81073
▁service	-9.8118
▁Now	-9.81185
ನು	-9.81258
ਵਾਂ	-9.81265
লো	-9.81271
ृ	-9.81286
▁''	-9.81399
▁મા	-9.81478
fi	-9.81481
▁करा	-9.81483
રિ	-9.81506
▁स्वास्थ्य	-9.81548
વું	-9.81616
▁सोशल	-9.81656
▁changed	-9.81697
लं	-9.81709
ب	-9.81761
▁Justice	-9.81776
▁Bihar	-9.81813
▁completely	-9.81828
▁மிகவும்	-9.81859
▁medical	-9.81875
जे	-9.8194
▁विभिन्न	-9.81962
▁continue	-9.82168
▁ਪ	-9.8218
▁girl	-9.82221
आई	-9.8228
▁played	-9.82371
▁भ	-9.82449
▁ऐसे	-9.82467
ju	-9.82505
▁ಜ	-9.82505
▁झाला	-9.82537
▁Lok	-9.82574
▁वीडियो	-9.82587
▁side	-9.82716
▁ಅದನ್ನು	-9.82746
▁history	-9.82787
▁stop	-9.82789
12	-9.82876
▁বেশি	-9.8292
▁भर	-9.8298
▁app	-9.83038
▁Here	-9.83074
."""	-9.83132
મી	-9.83251
களின்	-9.83262
line	-9.83273
ತು	-9.83281
▁needed	-9.83393
णी	-9.83465
तील	-9.83481
▁online	-9.83521
▁ਵਿ	-9.83619
▁ছিলেন	-9.83625
ਸਾ	-9.83626
▁निर्माण	-9.83648
भ	-9.8365
ru	-9.83652
▁issues	-9.83673
ਂ	-9.83713
▁Central	-9.83734
▁मांग	-9.83751
सं	-9.83844
यू	-9.83858
▁आधार	-9.83919
▁कमी	-9.83922
om	-9.83929
▁ઉ	-9.83939
एस	-9.83971
▁ಕೆಲಸ	-9.84003
▁તેની	-9.84036
ud	-9.84044
▁मो	-9.84097
▁দেখা	-9.84224
▁এখানে	-9.84228
इ	-9.84283
▁reasons	-9.8433
न्	-9.8434
▁admitted	-9.84546
and	-9.8455
▁गंभीर	-9.84632
▁features	-9.84661
▁অন্য	-9.84672
▁directed	-9.84779
ೀ	-9.84815
lu	-9.8484
તો	-9.84871
▁मे	-9.84931
▁senior	-9.84964
▁भूमिका	-9.84997
ઘ	-9.84998
Y	-9.85003
▁ਨਾ	-9.85119
▁पानी	-9.85127
লাম	-9.85173
▁ಹೇಗೆ	-9.85248
ફ	-9.85299
ায়	-9.85319
▁কা	-9.85404
ਟਰ	-9.85457
ಕಾ	-9.85534
स्त	-9.85539
▁200	-9.85564
▁करती	-9.85573
▁परीक्षा	-9.85587
ತ್ತ	-9.85621
▁anyone	-9.85644
▁men	-9.85645
ಿದ್ದರು	-9.85669
▁প্রতি	-9.85785
▁જોઈએ	-9.85843
▁खा	-9.85901
▁investigating	-9.85926
শা	-9.85984
ری	-9.86011
▁States	-9.86014
▁तैयार	-9.86055
one	-9.86116
▁લોકો	-9.86121
▁रि	-9.86148
ெ	-9.86203
▁મને	-9.8624
▁ਤਾਂ	-9.86241
▁பா	-9.86385
▁प्रत्येक	-9.86629
ಟ	-9.86642
▁ಹೆಚ್ಚು	-9.86713
▁ہے۔	-9.86905
▁decided	-9.86979
▁fine	-9.87025
▁pain	-9.87073
▁निर्णय	-9.87127
ಿನ	-9.87209
▁match	-9.87224
ಧ	-9.87244
▁आता	-9.87355
▁Another	-9.87402
▁lost	-9.87413
કાર	-9.8744
▁Rajasthan	-9.87523
▁pre	-9.87561
ana	-9.87607
▁আরও	-9.87703
ਭ	-9.8774
▁वर्ष	-9.87849
ದಿ	-9.87856
ছ	-9.87856
▁पंजाब	-9.87877
nu	-9.87892
▁0	-9.87914
▁போ	-9.87925
▁નહીં	-9.87987
▁રહી	-9.88011
शन	-9.88032
ut	-9.88045
ਜੀ	-9.88048
ism	-9.88129
▁rest	-9.88183
▁full	-9.88184
▁popular	-9.88189
ऊ	-9.88199
▁final	-9.88243
▁रिपोर्ट	-9.88301
30	-9.88303
ंस	-9.88311
▁व्यक्ति	-9.88428
▁પા	-9.88465
▁lives	-9.88468
▁कार्रवाई	-9.88539
▁ಇದೆ	-9.88562
der	-9.88586
્યો	-9.88615
▁relationship	-9.8862
50	-9.88673
ten	-9.88752
ೌ	-9.88775
லாம்	-9.88872
▁आपके	-9.8889
▁उनका	-9.88947
▁महत्वपूर्ण	-9.88949
▁ঠিক	-9.89069
▁enough	-9.891
▁जाते	-9.89118
▁Sri	-9.89188
▁ನಮ್ಮ	-9.89344
▁ਬਾਅਦ	-9.89376
tri	-9.89388
ੂ	-9.89411
10	-9.89423
▁ಬ	-9.89442
▁Mr	-9.89475
▁Raj	-9.89494
▁common	-9.89497
▁prices	-9.89567
ખ	-9.89592
▁Amit	-9.89628
]	-9.89754
▁তুমি	-9.8981
_	-9.89911
▁बढ़	-9.89915
ਬੀ	-9.89974
▁સુધી	-9.90043
▁नजर	-9.90136
▁Air	-9.90191
▁My	-9.90291
களுக்கு	-9.90295
ton	-9.90322
▁Uttar	-9.90347
▁उसकी	-9.90349
▁ઉપયોગ	-9.90423
▁room	-9.90466
▁বেশ	-9.90526
ਡੀ	-9.90572
▁young	-9.90609
லா	-9.90638
▁प्रक्रिया	-9.90688
ਰੇ	-9.90701
▁मिल	-9.90707
ां	-9.90737
னை	-9.90738
▁அல்லது	-9.90752
▁success	-9.90774
▁front	-9.90785
आ	-9.90833
एम	-9.90845
▁view	-9.90856
▁তাকে	-9.90885
களும்	-9.90908
▁जहां	-9.90933
▁launched	-9.90947
नो	-9.90956
▁below	-9.90963
▁international	-9.91061
▁temperature	-9.91082
▁द	-9.91103
ॅ	-9.91107
▁சில	-9.91135
▁natural	-9.91151
▁ಕಾರಣ	-9.91189
▁উত্তর	-9.91204
▁book	-9.91279
લો	-9.91389
दार	-9.91403
▁ਸਨ	-9.91432
▁चर्चा	-9.91437
▁ಪ್ರಕರಣ	-9.91438
শি	-9.9149
▁energy	-9.91523
▁ਰਹੇ	-9.91531
▁Department	-9.91534
▁अच्छा	-9.91544
▁general	-9.91563
▁ठीक	-9.91585
ನ್ನ	-9.91636
ುತ್ತಾರೆ	-9.91721
▁जाती	-9.9174
್ಯ	-9.91757
▁ਸਕਦਾ	-9.91763
▁Karnataka	-9.91858
ਕਾਰ	-9.91875
▁पहली	-9.92
▁music	-9.92086
▁written	-9.92106
ियां	-9.92122
ಯಾಗ	-9.92206
▁दिए	-9.92208
ाई	-9.92224
রো	-9.92239
▁મ	-9.92296
खा	-9.92333
▁છું	-9.92361
ੌ	-9.92381
▁value	-9.92487
एफ	-9.92495
ং	-9.92563
▁murder	-9.92634
▁became	-9.92641
▁website	-9.92647
▁addition	-9.92659
▁உள்ளது	-9.92727
সা	-9.93031
▁22	-9.9305
मो	-9.93163
▁நாம்	-9.93186
▁60	-9.93331
▁मौजूद	-9.93359
▁સમય	-9.934
▁राष्ट्रपति	-9.93427
▁उच्च	-9.9347
▁Ali	-9.93475
▁ਸਰਕਾਰ	-9.93477
▁village	-9.935
▁महाराष्ट्र	-9.93512
▁color	-9.93514
▁۔	-9.9352
त्	-9.93522
ig	-9.93523
▁तब	-9.93568
▁million	-9.9359
ড়া	-9.93654
▁films	-9.93671
▁happening	-9.93694
ੜ	-9.93719
sha	-9.93727
▁game	-9.93861
لی	-9.9387
▁کر	-9.93883
ীয়	-9.93929
ற்ற	-9.93953
ದ್	-9.93968
ாக	-9.93981
ian	-9.94098
▁કો	-9.9414
▁market	-9.9417
▁यदि	-9.94296
▁ಆದ್ದರಿಂದ	-9.94297
▁current	-9.9437
▁अगर	-9.94432
ਿੰਗ	-9.9446
ড়	-9.94526
ૂ	-9.94666
डे	-9.94748
fo	-9.94823
tal	-9.94827
▁নাই	-9.94841
▁दुनिया	-9.94915
▁सेवा	-9.94937
ரை	-9.94955
▁Party	-9.94987
▁skin	-9.94996
▁hope	-9.9501
▁চাই	-9.95021
▁towards	-9.95033
od	-9.95062
▁સં	-9.95081
▁actress	-9.95309
▁plan	-9.95312
ang	-9.95316
▁ਦਿੱਤਾ	-9.9537
▁परिणाम	-9.95374
▁six	-9.95376
▁प्रश्न	-9.95403
ally	-9.95462
▁होंगे	-9.95467
▁Centre	-9.95529
ran	-9.95552
▁क्यों	-9.95555
▁recently	-9.95639
▁ਬਾਰੇ	-9.95652
▁વિ	-9.95686
▁runs	-9.95689
▁happens	-9.95715
▁ਸੰ	-9.95748
▁এতে	-9.95771
▁respect	-9.95789
ಸೆ	-9.95834
▁சு	-9.95836
▁நீ	-9.95863
▁હ	-9.95868
ani	-9.9589
ಕೆ	-9.95903
▁ব	-9.95971
फ़	-9.95977
ban	-9.95995
ದೆ	-9.96066
▁দিয়ে	-9.96106
▁benefit	-9.96149
▁Hospital	-9.96161
▁रंग	-9.96199
▁बड़ा	-9.96207
▁32	-9.96264
▁quality	-9.96273
▁করুন	-9.96289
▁जवाब	-9.96297
▁cricket	-9.96303
▁यही	-9.96305
▁जाएगी	-9.96309
▁research	-9.9632
▁खेल	-9.96335
▁began	-9.96353
▁2021	-9.96415
▁होना	-9.96476
▁बनाने	-9.96476
পা	-9.96497
देश	-9.96499
ਧ	-9.96514
▁અન્ય	-9.9652
यर	-9.96539
શે	-9.9663
▁તમામ	-9.96668
ring	-9.96774
ವೆ	-9.96789
▁બ	-9.9687
▁किंवा	-9.96931
সে	-9.96976
▁Besides	-9.97047
▁અહીં	-9.97081
▁places	-9.97192
▁अधिकारियों	-9.97225
▁ਕੰਮ	-9.97278
ರೂ	-9.97287
mon	-9.97306
▁तौर	-9.97374
▁ಸಂ	-9.97408
ship	-9.97409
ষ	-9.97446
▁नए	-9.9756
▁ಕೂಡ	-9.97591
▁remain	-9.97611
▁Australia	-9.97617
▁राहुल	-9.97658
▁તમારા	-9.97695
য়া	-9.97696
▁workers	-9.9773
ेशन	-9.97735
▁आने	-9.9776
ان	-9.97784
mer	-9.9782
▁percent	-9.97849
fa	-9.97865
▁attended	-9.97866
▁ਰਿਹਾ	-9.97868
ee	-9.97883
▁1,	-9.97929
க்கும்	-9.97944
கு	-9.97969
ag	-9.97976
▁Al	-9.97986
▁director	-9.98008
कि	-9.98027
▁parts	-9.98037
▁bring	-9.98054
ंद	-9.98074
ities	-9.98084
म्	-9.98097
ਥ	-9.98116
▁कै	-9.98145
▁आपल्या	-9.98162
end	-9.98186
sp	-9.98212
▁month	-9.98295
▁having	-9.98307
ಎಸ್	-9.98399
▁increasing	-9.98415
▁বড়	-9.98439
▁કેવી	-9.98455
▁একজন	-9.98476
▁एन	-9.98544
▁CBI	-9.9856
▁close	-9.98568
▁card	-9.986
bo	-9.98607
ક્ષ	-9.98608
▁United	-9.98612
out	-9.98642
রু	-9.98754
பா	-9.98763
ಲಿಲ್ಲ	-9.98769
han	-9.98971
▁Day	-9.99
▁उन	-9.99155
सू	-9.99156
হি	-9.99236
mar	-9.99288
तो	-9.99291
এ	-9.99313
ಜಾ	-9.99315
▁ಇಲ್ಲಿ	-9.99342
▁age	-9.99342
્યુ	-9.99348
▁healthy	-9.9938
▁शहर	-9.99397
▁शर्मा	-9.99413
▁once	-9.99421
▁ಸಹ	-9.99548
▁ಉ	-9.99584
▁sub	-9.99594
▁શકો	-9.99605
rs	-9.99608
জে	-9.99711
▁ಅದರ	-9.99719
▁ਗਏ	-9.99749
ਬਾ	-9.99765
▁राज	-9.99791
▁বলেন	-9.99842
os	-9.99923
▁સૌથી	-9.99963
▁کہ	-10.0001
▁ಅನ್ನು	-10.0002
▁patients	-10.0004
কি	-10.0005
▁शाह	-10.0005
▁office	-10.0006
▁stay	-10.0008
▁Supreme	-10.0011
ણી	-10.0011
▁region	-10.0012
▁strong	-10.0013
रि	-10.0016
▁positive	-10.0017
ence	-10.0018
ન્ટ	-10.003
২	-10.0033
ಲೆ	-10.0034
▁করেছেন	-10.0037
▁test	-10.0038
▁looking	-10.0042
▁pretty	-10.0049
em	-10.005
ணி	-10.0052
▁worked	-10.0053
ள	-10.0054
▁election	-10.0057
ಶ್	-10.0071
▁During	-10.0072
▁Where	-10.0074
યા	-10.0074
▁मिला	-10.0077
▁અમે	-10.0087
▁etc	-10.0088
▁आवश्यकता	-10.009
▁weight	-10.0091
▁म्हणून	-10.0102
▁তখন	-10.0106
▁works	-10.0106
▁eyes	-10.0108
▁कोर्ट	-10.0108
ಬ್	-10.0108
पर	-10.0114
▁Ex	-10.0114
▁ત્યાં	-10.0115
સા	-10.0117
ram	-10.012
▁কেউ	-10.0126
▁ಇದನ್ನು	-10.0134
ந்து	-10.0136
▁উ	-10.0145
چ	-10.0145
▁लगता	-10.0146
कडे	-10.0146
▁दूसरे	-10.0146
ँ	-10.015
नगर	-10.0163
▁পারি	-10.0166
▁ਜਿਸ	-10.0166
▁b	-10.0173
প্র	-10.0173
▁salt	-10.0176
▁mean	-10.0177
▁increased	-10.0178
▁underway	-10.0189
▁जाना	-10.0191
▁हूँ	-10.0194
▁இருக்க	-10.0196
▁দিন	-10.0198
rap	-10.0198
▁within	-10.0201
▁করেছে	-10.0204
▁प्रदान	-10.0207
▁समस्या	-10.0207
▁remember	-10.0207
▁पांच	-10.0211
This	-10.0212
nd	-10.0213
ਵਰ	-10.0217
ric	-10.0221
▁असा	-10.0225
ோ	-10.0228
▁तुम	-10.0234
▁certain	-10.024
ंत	-10.0242
ಿದ್ದ	-10.0245
▁ಎಲ್ಲ	-10.0248
▁located	-10.0248
tor	-10.0249
▁Kerala	-10.0252
निक	-10.0252
ભા	-10.0256
▁X	-10.0257
▁कु	-10.0264
▁Can	-10.0265
ವಾಗ	-10.0268
▁शिकायत	-10.0273
▁கோ	-10.0276
▁2019	-10.0277
ار	-10.0279
લે	-10.0284
▁फिलहाल	-10.0284
▁संबंधित	-10.0286
▁झाली	-10.0293
વિ	-10.0295
দে	-10.0298
प्ल	-10.0304
▁क्रिकेट	-10.0308
▁हाल	-10.0314
લિ	-10.0316
▁check	-10.0317
▁ever	-10.0319
▁ਮੁੱਖ	-10.032
▁प्रदर्शन	-10.0321
▁similar	-10.0321
▁ensure	-10.0329
માંથી	-10.0331
र्ड	-10.0331
▁आली	-10.0334
दि	-10.0337
▁extremely	-10.0339
▁ಮಾಡಿ	-10.034
▁আমাকে	-10.0345
બી	-10.0347
গুলো	-10.0349
ਅ	-10.035
ांनी	-10.0356
▁जल्द	-10.0358
▁production	-10.0358
ांना	-10.0362
▁short	-10.0363
▁trying	-10.0374
ச்ச	-10.0374
▁पूरा	-10.0378
કર	-10.0379
▁husband	-10.0387
▁expected	-10.0396
▁yourself	-10.0397
ات	-10.04
▁देख	-10.0403
▁শেষ	-10.0403
तर	-10.0403
▁With	-10.0404
▁0.	-10.0413
▁Director	-10.0415
▁ફિલ્મ	-10.0416
▁attention	-10.0418
ki	-10.0422
▁Not	-10.043
▁Cha	-10.0434
▁என்பது	-10.0438
▁couple	-10.0439
▁बी	-10.0449
நா	-10.0455
ிக்க	-10.0458
▁fear	-10.0461
▁भेज	-10.0461
ಯಿಂದ	-10.0462
▁अमेरिका	-10.0464
▁week	-10.0468
▁आय	-10.0469
▁study	-10.0476
▁Vi	-10.0481
▁Mi	-10.0486
ುತ್ತವೆ	-10.0487
▁இதை	-10.0493
▁meet	-10.0494
PM	-10.0497
▁त्यांना	-10.05
▁उसने	-10.0506
▁ध्यान	-10.0507
ಿತ್ತು	-10.0518
vo	-10.052
▁clean	-10.052
▁शिक्षा	-10.0531
ಡೆ	-10.0538
யான	-10.0538
000	-10.0539
▁conducted	-10.054
▁learn	-10.0543
▁field	-10.0544
▁लगभग	-10.0544
▁hair	-10.0552
बर	-10.0554
યુ	-10.0555
▁Of	-10.0555
▁largest	-10.0561
▁lodged	-10.0563
▁Is	-10.0565
ातील	-10.057
ু	-10.0575
▁ख	-10.0576
▁Haryana	-10.0576
▁fight	-10.0576
▁महा	-10.0577
ங்களை	-10.058
▁ಪ್ರತಿ	-10.058
▁જરૂર	-10.0587
▁सवाल	-10.0589
টে	-10.059
▁ask	-10.0592
ام	-10.0607
தை	-10.0608
લ્	-10.0609
▁rushed	-10.061
▁com	-10.0613
டை	-10.0613
men	-10.0617
रण	-10.0617
▁St	-10.062
▁থাকে	-10.0622
▁ती	-10.0625
▁रह	-10.063
▁solution	-10.0632
▁risk	-10.0634
▁rate	-10.0638
िका	-10.0642
▁Hindi	-10.0645
▁विधानसभा	-10.0645
▁તરીકે	-10.0648
ਣਾ	-10.0648
▁application	-10.0649
ಸ್ಥ	-10.0651
▁teams	-10.0652
▁स्थित	-10.0658
▁ભાગ	-10.0661
रु	-10.0662
▁Twitter	-10.0664
कल	-10.0665
▁ਗੱਲ	-10.0676
ਮੀ	-10.068
▁अच्छी	-10.0681
les	-10.0685
▁gone	-10.0686
▁मि	-10.0688
▁बीजेपी	-10.069
▁building	-10.0696
que	-10.0696
িয়ে	-10.07
lic	-10.0702
▁ਨਿ	-10.0704
ांच्या	-10.0709
હા	-10.0717
▁છીએ	-10.0718
મે	-10.0724
স্ট	-10.0724
દા	-10.0733
▁ਦਿੱਤੀ	-10.0735
▁स्थान	-10.0736
▁ಅಲ್ಲ	-10.0743
▁storage	-10.0745
▁mix	-10.0747
▁release	-10.0754
ਰੋ	-10.0754
েই	-10.0754
▁rain	-10.0754
▁ಸಿ	-10.076
▁sector	-10.0761
▁दिवस	-10.0763
▁س	-10.0766
do	-10.078
▁financial	-10.078
port	-10.0784
▁आला	-10.0786
ial	-10.0788
▁त्यांच्या	-10.0795
▁என்ற	-10.0801
▁Everyone	-10.0805
fe	-10.0812
▁माध्यम	-10.0813
▁behind	-10.0817
▁economic	-10.0825
▁રહ્યા	-10.0825
ਾਈ	-10.0829
ছিল	-10.0831
▁programme	-10.0832
▁effect	-10.0832
फा	-10.0834
▁married	-10.0834
▁ਕਰਨਾ	-10.0835
▁ಏನು	-10.0835
▁अब	-10.084
▁ನಲ್ಲಿ	-10.0841
▁Therefore	-10.0845
धा	-10.0849
ંગ	-10.0855
▁fun	-10.0858
ಕರ	-10.0861
চি	-10.0864
ीन	-10.0868
▁हमने	-10.087
▁दक्षिण	-10.087
▁pressure	-10.0872
▁daily	-10.0874
ಳಿ	-10.0874
\	-10.0876
ગા	-10.0877
तु	-10.0879
▁create	-10.0881
▁Go	-10.0884
▁डॉ	-10.0886
▁Nadu	-10.0889
▁ایک	-10.0889
▁चाहते	-10.0895
19	-10.0898
ব্	-10.0901
िन	-10.0903
▁ਜਾਂ	-10.0904
▁बाहर	-10.0907
▁recovered	-10.0908
▁विरोध	-10.0909
▁committee	-10.0911
ub	-10.0911
▁considered	-10.0913
▁Development	-10.0916
▁earlier	-10.0918
▁ತುಂಬಾ	-10.0923
टो	-10.0925
In	-10.0926
▁months	-10.0927
▁options	-10.0929
▁दल	-10.0931
ice	-10.0931
▁near	-10.0933
▁500	-10.0941
▁शव	-10.0943
▁capital	-10.0945
▁মু	-10.0947
તું	-10.0954
▁pictures	-10.0955
ಗು	-10.0959
ய்	-10.096
त्र	-10.0964
ನಲ್ಲಿ	-10.0967
▁basis	-10.0967
ಿದರು	-10.0969
▁picture	-10.0969
िल	-10.0972
▁প্রথম	-10.0973
নের	-10.0982
▁यांच्या	-10.0986
्यू	-10.0989
▁जीत	-10.0996
▁anti	-10.1
জা	-10.1001
▁season	-10.1011
▁ಸ	-10.1014
▁आग	-10.1019
ದಾ	-10.1023
▁सामने	-10.1023
▁स्व	-10.1023
પી	-10.1025
▁deal	-10.1029
ner	-10.1033
▁Commission	-10.1035
▁बयान	-10.1038
▁response	-10.1042
▁சி	-10.1051
ڈ	-10.1057
▁until	-10.1063
ग्र	-10.1064
▁Se	-10.1066
▁ਹਰ	-10.1067
▁करत	-10.1073
ये	-10.108
▁interesting	-10.1092
▁ஏ	-10.1099
▁डि	-10.1102
gra	-10.1103
▁efforts	-10.1104
ન્સ	-10.1104
▁less	-10.1107
▁related	-10.1114
▁green	-10.1116
পে	-10.112
णार	-10.1123
▁கு	-10.113
ال	-10.1131
ਿਤ	-10.1138
▁কম	-10.1139
X	-10.114
time	-10.1143
▁માત્ર	-10.1144
▁Apart	-10.1145
▁past	-10.1145
▁मिली	-10.1147
ત્ર	-10.1149
▁ਪ੍ਰਧਾਨ	-10.115
▁மிக	-10.1152
▁Ko	-10.1158
▁youth	-10.1174
मि	-10.1175
▁समझ	-10.1178
▁सदस्य	-10.1185
▁though	-10.1189
▁विश्व	-10.1195
▁জানা	-10.1199
▁ਕਿਸੇ	-10.1199
તિ	-10.1205
▁হয়নি	-10.1205
▁Currently	-10.1206
यो	-10.1208
red	-10.1208
▁भर्ती	-10.1209
ப்படும்	-10.1209
ص	-10.1212
▁ಮೂಲಕ	-10.1212
ূ	-10.1215
▁function	-10.1216
ভি	-10.1218
வில்	-10.122
▁personal	-10.1226
▁changes	-10.1233
+	-10.1236
sion	-10.1238
क्स	-10.124
સ્ટ	-10.1242
▁त्यांनी	-10.1243
தாக	-10.1249
▁Assembly	-10.125
▁জানি	-10.1256
▁જ્યારે	-10.1256
▁आम	-10.1261
મિ	-10.1261
▁करू	-10.1262
▁add	-10.1273
▁officer	-10.1277
▁बंगाल	-10.128
ಮೆ	-10.1285
▁search	-10.1289
▁single	-10.1293
▁कीमत	-10.1294
ਦਰ	-10.1296
▁लाभ	-10.1297
دی	-10.1298
▁till	-10.1301
▁industry	-10.1304
कृत	-10.1305
ডি	-10.1307
▁पद	-10.131
তার	-10.1311
▁ঘটনা	-10.1313
▁stars	-10.1327
▁इसी	-10.1334
▁responsibility	-10.1335
ਫ਼	-10.1342
▁exactly	-10.1344
▁चीन	-10.1348
▁technology	-10.135
▁temple	-10.135
▁rules	-10.1351
But	-10.1356
▁বিষয়ে	-10.1359
▁ਸਕਦੇ	-10.1361
▁নতুন	-10.1362
▁Education	-10.1368
round	-10.138
▁ಬಿಜೆಪಿ	-10.1385
▁80	-10.1387
▁என்	-10.1389
60	-10.1393
▁ਕਰੋ	-10.14
डो	-10.1402
ওয়া	-10.1402
▁hands	-10.1402
com	-10.1404
़	-10.1416
van	-10.1417
ीत	-10.1421
▁wanted	-10.1424
▁likely	-10.143
▁बता	-10.143
ন্ত	-10.1435
▁দেওয়া	-10.144
▁আগে	-10.1441
তো	-10.1443
▁स्तर	-10.1444
▁ಕೆಲವು	-10.1445
▁दर	-10.1445
▁टेस्ट	-10.1445
▁करीब	-10.1446
▁position	-10.1448
ಹಾ	-10.145
दे	-10.1454
▁=	-10.1457
ever	-10.1459
▁मै	-10.1459
स्थ	-10.1461
▁Army	-10.1461
ಪಡಿಸ	-10.1464
ized	-10.1464
ನೇ	-10.1464
ಶಿ	-10.1465
▁அவர்கள்	-10.1466
▁मैच	-10.1467
▁ਪੰਜਾਬ	-10.1473
व्ह	-10.1474
▁low	-10.1475
ડે	-10.1477
▁successful	-10.1484
▁सही	-10.1485
▁फैसला	-10.1485
ور	-10.15
ছেন	-10.1501
▁worth	-10.1502
ட்டி	-10.1504
nagar	-10.1512
▁कार्ड	-10.1513
▁International	-10.1514
▁activities	-10.1515
▁particular	-10.1518
▁opportunity	-10.152
▁ಮೊದಲ	-10.152
pro	-10.1522
use	-10.1523
▁Affairs	-10.1523
▁ಸು	-10.1527
▁बच्चों	-10.1527
▁પાણી	-10.1533
▁districts	-10.1543
ांची	-10.1543
ಗ್	-10.1546
ंच	-10.1555
▁product	-10.1562
▁black	-10.1564
▁बोल	-10.1566
▁70	-10.1568
▁अस	-10.1575
▁call	-10.1577
▁[	-10.1579
▁ಸಮಸ್ಯೆ	-10.158
▁Allah	-10.1592
ਿ	-10.1593
▁कराया	-10.1594
▁Hindu	-10.1594
ck	-10.1595
ਵੇ	-10.1602
য	-10.1604
एच	-10.1605
ास	-10.1605
▁loss	-10.1607
▁গেল	-10.1609
▁ਤੁਹਾਨੂੰ	-10.161
▁travel	-10.161
▁वहां	-10.1611
▁ভ	-10.1612
▁लिये	-10.1614
▁parties	-10.1615
▁सचिव	-10.1618
▁includes	-10.1622
গত	-10.1623
▁ओ	-10.1625
▁fee	-10.1625
▁difference	-10.1626
▁ವಿಷಯ	-10.1632
ाय	-10.1644
▁ಚಿತ್ರ	-10.1646
▁ب	-10.1649
▁modern	-10.1651
What	-10.1655
▁move	-10.166
ોમાં	-10.1667
▁பிர	-10.1669
▁North	-10.1671
ning	-10.1672
▁दिनों	-10.1675
▁Kohli	-10.1677
▁ਹੁੰਦਾ	-10.1681
মে	-10.1683
▁ਰਾਜ	-10.1685
▁23	-10.1689
▁Lo	-10.1693
ಷ	-10.1696
▁आदेश	-10.17
ાય	-10.1701
ise	-10.1701
▁সু	-10.1702
comp	-10.1706
▁वापर	-10.171
▁bank	-10.1712
ਕੋ	-10.1715
▁ಮುಖ್ಯ	-10.1715
▁फोटो	-10.1715
ುತ್ತಿದೆ	-10.1715
chi	-10.1716
▁सामान्य	-10.1718
ke	-10.1719
▁Board	-10.1723
▁उपचार	-10.1726
▁वाला	-10.1729
land	-10.1734
▁মানুষ	-10.1736
▁COVID	-10.1736
ட்டு	-10.1737
ल्	-10.1744
▁તેમના	-10.1745
▁கூற	-10.1747
▁society	-10.1748
▁central	-10.1749
▁हिस्सा	-10.175
ाव	-10.1753
▁produced	-10.1758
ug	-10.1767
▁bus	-10.1768
▁वास्तव	-10.1768
▁language	-10.177
▁choose	-10.1772
▁दोन	-10.1782
▁ಭಾರತ	-10.1786
▁San	-10.1788
▁पिछले	-10.1788
றி	-10.1789
ਹਾ	-10.1791
লেন	-10.1795
ঘ	-10.1799
ಿವೆ	-10.18
▁ગ	-10.18
નાં	-10.1801
மும்	-10.1811
▁injuries	-10.1817
▁normal	-10.182
ಿದ್ದು	-10.1821
▁leave	-10.1822
▁विश्वास	-10.1824
▁নাম	-10.1824
▁ಪೊಲೀಸರು	-10.1828
▁ಸೇರಿಸಿ	-10.1829
▁ಬಹಳ	-10.183
▁पहुंच	-10.1831
னி	-10.1832
▁ऐसी	-10.1836
▁rule	-10.1847
▁गो	-10.1847
▁roles	-10.1848
▁Ne	-10.1848
▁घोषणा	-10.1848
▁મે	-10.185
ுள்ளது	-10.1854
▁examination	-10.1863
▁বিষয়	-10.1863
▁28	-10.1863
▁class	-10.1866
▁অ্যা	-10.1867
ज्ञा	-10.1867
▁probe	-10.1871
▁இருக்கிறது	-10.1873
▁ਸੁ	-10.1873
▁देखील	-10.1875
▁address	-10.188
ex	-10.1881
▁विषय	-10.1887
▁ಉತ್ತಮ	-10.1893
ঙ্গ	-10.1895
▁ನಡೆಸ	-10.1899
▁TV	-10.1903
ರೋ	-10.1904
શો	-10.1905
▁ਚਾਹੀਦਾ	-10.1908
▁રહે	-10.1909
த்திற்கு	-10.1913
▁+	-10.1915
▁doctors	-10.1921
ਹਿ	-10.1922
▁गुजरात	-10.1924
war	-10.1926
می	-10.1931
▁आम्ही	-10.1932
ঃ	-10.1936
▁सीमा	-10.1937
val	-10.1938
▁type	-10.1939
▁उदाहरण	-10.194
▁English	-10.1943
▁लें	-10.1952
ಚ	-10.1956
res	-10.1961
▁वाढ	-10.1968
▁Po	-10.1968
▁वरिष्ठ	-10.1969
▁चुकी	-10.1975
of	-10.1977
▁fast	-10.1977
▁smartphone	-10.1977
থ	-10.1978
▁turn	-10.1979
ability	-10.1981
▁किसानों	-10.1982
▁இருக்கும்	-10.1985
▁return	-10.1993
▁ಹೊಸ	-10.2004
▁sugar	-10.2007
▁border	-10.2008
▁style	-10.201
▁key	-10.201
सन	-10.201
ரிய	-10.201
▁ಬಾ	-10.2013
▁gave	-10.2016
▁declared	-10.2017
▁स्पष्ट	-10.202
▁राम	-10.2021
▁England	-10.2022
".	-10.2023
cl	-10.2026
▁ਕਰਦੇ	-10.2032
ಬ	-10.2032
▁non	-10.2038
▁त्यामुळे	-10.2038
▁दाखल	-10.2038
▁Medical	-10.2041
▁अवसर	-10.2043
▁families	-10.2047
ಬಿ	-10.2052
mb	-10.2054
▁ಆಯ್ಕೆ	-10.2057
আই	-10.2062
ca	-10.2064
ding	-10.2065
ವರು	-10.2067
15	-10.2069
▁ਅਸੀਂ	-10.2069
ન્	-10.2075
▁कह	-10.2075
▁ਲੋਕਾਂ	-10.2076
▁পাওয়া	-10.2076
িয়া	-10.2078
ಂದ	-10.2083
q	-10.2102
dy	-10.2107
▁km	-10.2115
▁வர	-10.2118
▁ਤਰ੍ਹਾਂ	-10.212
▁ट्वीट	-10.2123
▁નિ	-10.2123
▁ہیں	-10.213
▁ਪੁਲਿਸ	-10.213
▁interest	-10.2132
▁active	-10.2137
▁ಇತರ	-10.2141
ஜ	-10.2141
चं	-10.2147
▁இதில்	-10.2152
णा	-10.2154
▁Mar	-10.2155
सर	-10.2156
▁હો	-10.2159
▁according	-10.2161
▁गा	-10.2161
নো	-10.2162
ுகிறது	-10.2162
▁जान	-10.2162
▁above	-10.2165
▁रुपए	-10.217
ક્	-10.2172
▁College	-10.2174
ৎ	-10.2182
বু	-10.2182
Di	-10.2184
▁मगर	-10.2185
▁मेरी	-10.2185
▁கொண்ட	-10.2187
cing	-10.2187
▁run	-10.2188
▁population	-10.2189
▁बिहार	-10.2195
▁तसेच	-10.2195
▁politics	-10.2197
▁allowed	-10.2197
ान	-10.2199
हार	-10.2204
▁forget	-10.2208
▁તેમાં	-10.2209
▁Her	-10.221
अप	-10.2213
▁included	-10.2213
▁हमेशा	-10.2213
ચા	-10.2216
▁रक्षा	-10.2216
▁लेने	-10.2218
▁training	-10.2221
year	-10.2222
▁space	-10.2223
IT	-10.2225
▁ಕು	-10.2229
▁உங்கள்	-10.2231
▁ਕਰਦਾ	-10.2236
▁देशों	-10.2238
▁अभि	-10.224
शे	-10.2241
ோம்	-10.225
▁safe	-10.2254
▁Three	-10.2255
mal	-10.2258
ਘ	-10.226
▁कोशिश	-10.226
▁thank	-10.2261
▁यू	-10.2262
▁growth	-10.2263
த்தி	-10.2263
▁eat	-10.2265
फे	-10.2266
▁FIR	-10.2266
ত্র	-10.2268
▁progress	-10.2268
▁কিছুই	-10.2272
▁સિ	-10.2272
▁nation	-10.2277
ফি	-10.2278
megapixel	-10.228
▁Among	-10.2286
▁फार	-10.2288
ile	-10.229
65	-10.2294
ான்	-10.2295
ical	-10.2298
pi	-10.2301
▁দু	-10.2306
▁letter	-10.2308
▁एका	-10.2308
▁बच्चे	-10.2309
▁Le	-10.2313
▁हत्या	-10.2313
ವೂ	-10.2314
ப்படுகிறது	-10.2319
▁expressed	-10.2321
▁speak	-10.2322
▁आवेदन	-10.233
mm	-10.2336
load	-10.2337
▁মে	-10.2339
Fi	-10.2341
▁વિશે	-10.2345
▁living	-10.2348
▁எந்த	-10.2348
▁जिसके	-10.2349
▁write	-10.2366
▁अभिनेता	-10.2367
▁nice	-10.2367
▁Pra	-10.2369
ear	-10.2371
▁पक्ष	-10.2372
பட	-10.2372
▁ಪ	-10.2375
▁असं	-10.2377
▁जल	-10.2378
ions	-10.2388
ಎಂ	-10.239
▁option	-10.2391
ಗೊಳಿಸ	-10.2392
▁Best	-10.2392
▁diet	-10.2393
▁મો	-10.2395
25	-10.2397
▁त्याला	-10.2403
▁देते	-10.2404
یں	-10.2404
▁ತಮ್ಮ	-10.2405
▁हि	-10.2408
ઠ	-10.241
▁model	-10.2412
▁जम्मू	-10.2413
▁CM	-10.2414
▁बड़े	-10.2415
▁diseases	-10.2417
▁એમ	-10.2422
▁Trump	-10.2425
▁forward	-10.2426
▁Sh	-10.2426
▁equal	-10.2426
si	-10.2426
▁તમને	-10.2428
▁হয়েছিল	-10.243
▁সং	-10.2434
ok	-10.2435
▁ਰਹੀ	-10.2437
▁सेना	-10.2443
ದೇ	-10.2447
▁Institute	-10.245
80	-10.2452
્યું	-10.2454
▁इं	-10.2455
▁આપ	-10.2459
▁playing	-10.2471
نا	-10.248
▁phase	-10.2489
ભ	-10.249
▁35	-10.2492
▁mobile	-10.2497
▁created	-10.2498
▁ई	-10.25
▁spread	-10.25
تی	-10.2502
ழ	-10.2503
▁ભ	-10.2508
▁एस	-10.251
▁कार	-10.2513
▁हादसे	-10.2516
ான	-10.2519
▁apply	-10.252
▁Ni	-10.2521
▁सिर्फ	-10.2524
▁complete	-10.2526
▁वजह	-10.2527
▁செ	-10.2528
▁milk	-10.2532
ટે	-10.2532
ਿਕ	-10.2534
বল	-10.2535
▁पेश	-10.2536
শ্ব	-10.2536
▁Council	-10.2537
ther	-10.2537
▁Ta	-10.2541
▁எப்படி	-10.2544
▁ಇದರ	-10.2546
نے	-10.2547
▁sea	-10.2549
ised	-10.2551
▁consider	-10.2558
▁ಪಾ	-10.2562
▁अनु	-10.2565
▁Meanwhile	-10.2567
દી	-10.2568
ಫ್	-10.2569
▁पत्नी	-10.2578
▁sources	-10.2583
जु	-10.2583
ಸಾ	-10.2586
▁27	-10.2586
ਕੀ	-10.2594
ಿತು	-10.2594
▁पि	-10.2596
▁अनुभव	-10.2596
▁सुरू	-10.2604
▁wrote	-10.2604
▁ਜਾਣ	-10.2607
▁پ	-10.261
▁brought	-10.2612
▁rooms	-10.2613
▁white	-10.2613
▁पु	-10.2619
▁alone	-10.2622
▁participated	-10.2622
▁ان	-10.2622
▁red	-10.2624
▁வழங்க	-10.2628
▁थीं	-10.2639
▁passed	-10.264
▁आर	-10.2644
▁पूरे	-10.2645
ber	-10.2645
▁संघ	-10.2645
बल	-10.2645
▁এখনও	-10.2647
▁reality	-10.2648
वाद	-10.2653
▁ਕਾਰਨ	-10.2666
▁bit	-10.2668
▁26	-10.2673
னா	-10.268
ಲೇ	-10.2682
ven	-10.2684
ासाठी	-10.2688
ਗਾ	-10.2688
▁ಒ	-10.2689
ਮਿ	-10.269
ize	-10.2698
পার	-10.2699
யே	-10.2699
▁peace	-10.2699
▁آ	-10.2707
ছিলাম	-10.2708
▁खुद	-10.2712
ங்களில்	-10.272
▁scheme	-10.2723
▁closed	-10.2725
ন্ড	-10.273
▁ਹੋਏ	-10.2734
PS	-10.2737
▁thinking	-10.2741
ৈ	-10.2743
18	-10.2745
▁सहित	-10.2746
▁অব	-10.2751
▁पश्चिम	-10.2754
▁completed	-10.2755
esh	-10.2757
▁બંને	-10.276
▁மு	-10.2761
▁त्यात	-10.2764
ுக்கு	-10.2766
▁પોલીસ	-10.2766
گ	-10.2767
▁Yadav	-10.2768
▁দুই	-10.2772
▁personnel	-10.2774
▁companies	-10.2776
▁मान	-10.2777
मेंट	-10.2778
▁District	-10.278
▁discussed	-10.2783
▁आनंद	-10.2788
▁केस	-10.2789
श्	-10.2789
ಾಗಿ	-10.279
ush	-10.2793
▁rise	-10.2797
▁होत	-10.2798
▁সমস্যা	-10.2801
▁idea	-10.2801
▁met	-10.2802
▁তোমার	-10.2804
▁आया	-10.2807
▁বে	-10.2808
tur	-10.2817
▁દરેક	-10.2819
ਸ਼ਾ	-10.2822
▁दूर	-10.2828
,""	-10.2829
▁officers	-10.283
ਸ਼ਨ	-10.2832
pat	-10.2833
▁step	-10.2836
▁Committee	-10.2839
▁राज्यों	-10.2839
▁First	-10.2839
ફે	-10.2843
▁शेयर	-10.2844
ology	-10.2847
ಚಿ	-10.2853
ರೇ	-10.2854
ટા	-10.2855
ણા	-10.2857
▁সহজ	-10.2858
ವರ್	-10.2861
▁More	-10.2862
SP	-10.2866
ٹی	-10.2867
▁ਵੱਖ	-10.2868
▁ਦੋ	-10.2868
ਤਰ	-10.287
▁তারপর	-10.287
▁કા	-10.2873
থা	-10.2873
▁reports	-10.2874
▁যাবে	-10.2875
▁समर्थन	-10.2882
▁न्यायालय	-10.2884
▁लगाया	-10.2884
▁Ch	-10.2889
▁संयुक्त	-10.2892
▁ರಾಜ್ಯ	-10.2892
था	-10.2895
व्य	-10.2895
ਖਾ	-10.2897
▁2018	-10.29
▁जिले	-10.2903
▁இரு	-10.2912
▁कैमरा	-10.2914
▁About	-10.2916
pri	-10.2917
55	-10.2919
ಪಾ	-10.292
▁आर्थिक	-10.292
shi	-10.2921
▁higher	-10.2926
गर	-10.2936
▁ಕಾರ್ಯ	-10.2941
▁அல்ல	-10.2942
▁exercise	-10.2947
▁पत्र	-10.2948
ಯಾಗಿದೆ	-10.2949
▁Madhya	-10.2951
▁300	-10.2953
▁material	-10.2958
▁बोर्ड	-10.2964
▁উপ	-10.2965
▁প্রয়োজন	-10.2968
▁ਪਹਿਲਾਂ	-10.2969
તે	-10.2969
▁मामलों	-10.297
He	-10.2972
েন	-10.2976
▁improve	-10.2977
न्स	-10.2979
▁डी	-10.2982
ED	-10.2984
▁সি	-10.2984
ંક	-10.2985
▁गयी	-10.2986
ط	-10.2992
इस	-10.2999
▁words	-10.3
क्र	-10.3005
ਿਆਂ	-10.3005
ತ್ರ	-10.3012
▁अर्थ	-10.3014
▁helps	-10.3014
▁இரண்டு	-10.3016
र्क	-10.3016
ਠ	-10.3018
▁பு	-10.3018
▁प्रयास	-10.3021
▁sports	-10.3031
ள்	-10.3033
▁કર્યું	-10.3035
স্ব	-10.3035
▁culture	-10.3036
▁उपस्थित	-10.3037
વાર	-10.3042
ਗੀ	-10.3046
बे	-10.305
▁अदालत	-10.305
ंज	-10.3051
▁इस्तेमाल	-10.3052
▁formed	-10.3055
▁ਲਿਆ	-10.306
▁prepared	-10.306
▁points	-10.3063
ائی	-10.3063
▁हमारी	-10.3064
र्म	-10.3065
ेड	-10.3066
▁কর	-10.3066
▁plant	-10.3067
ide	-10.3068
▁prevent	-10.3068
হে	-10.3068
▁64	-10.3072
▁मध्य	-10.3075
▁शो	-10.308
▁ಚ	-10.3081
▁یہ	-10.3081
ಂತೆ	-10.3085
மீ	-10.3086
மெ	-10.3087
સ્ત	-10.309
▁types	-10.3092
বো	-10.3092
▁आरोपियों	-10.3096
▁Most	-10.31
▁—	-10.3101
▁શકાય	-10.3106
▁article	-10.311
▁gold	-10.3111
हि	-10.3112
ಷ್	-10.3112
ળા	-10.3117
पाल	-10.3118
wan	-10.312
படி	-10.312
▁Pa	-10.3125
▁knows	-10.3128
sc	-10.3131
37	-10.3137
वन	-10.3138
▁morning	-10.3143
▁war	-10.3146
▁heavy	-10.315
▁ತನ್ನ	-10.3159
▁Such	-10.3161
▁cold	-10.3169
ರಿಗೆ	-10.317
விட	-10.317
व्या	-10.3175
▁ಹೋಗ	-10.3176
ਆਰ	-10.3177
ಜ್	-10.3177
▁department	-10.3179
▁regarding	-10.3182
▁arrest	-10.3186
17	-10.3189
▁ದಿನ	-10.3193
▁brother	-10.3195
धी	-10.3203
▁ਵੱਲੋਂ	-10.3203
▁হলো	-10.3213
▁rich	-10.3215
▁বিশ্বাস	-10.3215
az	-10.3215
▁projects	-10.3216
தே	-10.3219
▁પાસે	-10.3219
வரு	-10.3221
க்கி	-10.3222
▁drink	-10.3226
▁ಹೊಂದ	-10.3228
▁operation	-10.3234
▁আবার	-10.3235
▁खबर	-10.3237
ುತ್ತೇನೆ	-10.3239
▁correct	-10.3241
▁section	-10.3241
▁schools	-10.3245
▁players	-10.3249
▁forces	-10.325
ਆ	-10.3254
▁pepper	-10.3257
▁member	-10.3257
▁involved	-10.3259
che	-10.326
▁ব্যবহার	-10.3262
▁मुताबिक	-10.3262
त्या	-10.3263
par	-10.3264
ेल	-10.3264
▁रो	-10.3266
tro	-10.3267
▁Vijay	-10.3268
ual	-10.3271
hal	-10.3271
▁RAM	-10.3272
act	-10.3274
ন্	-10.3277
ೈ	-10.3277
स्क	-10.3282
16	-10.3284
cu	-10.3284
▁सहयोग	-10.3288
▁ಸಂಬಂಧ	-10.329
▁worry	-10.3291
▁بھی	-10.3291
▁Salman	-10.3293
▁ವಿರುದ್ಧ	-10.3294
ஞ்ச	-10.3295
▁additional	-10.3297
▁किस	-10.3298
ec	-10.3304
▁150	-10.3305
▁global	-10.3317
एन	-10.3318
પો	-10.3319
▁देता	-10.332
▁செய்த	-10.3322
AP	-10.3323
▁सुधार	-10.3323
शि	-10.3323
ेन	-10.3324
मन	-10.3324
▁પે	-10.3325
▁कहना	-10.3326
▁पीएम	-10.333
मू	-10.333
ਕਰ	-10.333
▁Jesus	-10.3333
▁protect	-10.3335
▁મદદ	-10.3337
▁share	-10.3339
gar	-10.3342
▁Pan	-10.3344
▁जिसे	-10.3346
▁sleep	-10.3347
▁especially	-10.3349
▁दिली	-10.3353
▁તેમને	-10.3355
ிட	-10.3359
▁उसका	-10.3364
▁please	-10.3368
11	-10.3369
ative	-10.3372
ph	-10.3374
ીઓ	-10.3377
▁ભારત	-10.3378
▁vehicles	-10.338
▁network	-10.3383
▁90	-10.3385
ड़ा	-10.3385
نی	-10.3386
▁તપાસ	-10.3388
▁School	-10.3389
▁લે	-10.3389
▁ਕਈ	-10.3393
mit	-10.3395
tu	-10.3397
cor	-10.3403
▁art	-10.3407
ಆರ್	-10.3412
▁performance	-10.3417
▁लागत	-10.3419
▁ಸಾ	-10.3423
▁बो	-10.3426
▁Parliament	-10.3428
▁ಉತ್ತರ	-10.3432
▁supply	-10.3436
47	-10.3438
▁effective	-10.3441
▁captain	-10.3442
▁বলতে	-10.3443
▁असते	-10.3443
40	-10.3448
▁इलाज	-10.345
▁choice	-10.3454
▁American	-10.3456
▁मार	-10.3458
▁चि	-10.3461
tin	-10.3467
▁ऑ	-10.3468
हम	-10.3476
ਗੇ	-10.3481
▁பி	-10.3484
▁Jo	-10.3484
ਕੇ	-10.3485
ષ	-10.3485
சா	-10.3487
▁ઘટના	-10.3488
▁मजबूत	-10.3489
▁ਲੈ	-10.349
▁Har	-10.349
tan	-10.3491
ষ্ট	-10.3492
▁outside	-10.3494
कों	-10.3494
ेस	-10.3497
▁Defence	-10.3497
34	-10.3498
દેશ	-10.3499
▁બાદ	-10.3507
ik	-10.3509
▁foreign	-10.3512
▁ਤੌਰ	-10.3514
▁ہو	-10.3515
பே	-10.3517
▁train	-10.3517
▁शरीर	-10.3522
कॉ	-10.3522
્ય	-10.3524
▁staff	-10.3524
▁allow	-10.3526
▁conditions	-10.3532
▁inside	-10.3532
▁அதன்	-10.3534
पूर्ण	-10.3535
▁रहने	-10.3535
ಗಿ	-10.3537
▁ಮಾಡಲು	-10.3538
▁enjoy	-10.3542
▁stage	-10.3542
झा	-10.3543
▁policy	-10.3546
▁இந்திய	-10.3548
▁असेल	-10.3549
▁paid	-10.3552
र्थ	-10.3553
▁முதல்	-10.3554
▁ಇರ	-10.3556
▁कानून	-10.3556
ens	-10.3558
▁तेल	-10.3559
ਮਾਨ	-10.3562
এস	-10.3566
ಟ್ಟ	-10.3566
▁ಮು	-10.3567
▁half	-10.3567
▁जिला	-10.3571
▁क्षेत्रों	-10.3572
▁आयोजित	-10.3573
▁ಹೆಚ್ಚಿನ	-10.3576
▁bodies	-10.3587
▁virus	-10.3588
▁बेहतर	-10.3591
▁suicide	-10.3597
গু	-10.3598
ium	-10.36
▁કર્યો	-10.3604
▁চেষ্টা	-10.3605
▁પ્રથમ	-10.3609
▁શા	-10.3613
ांचा	-10.3614
▁construction	-10.3617
▁পড়ে	-10.3617
▁assembly	-10.362
▁Later	-10.362
▁Avoid	-10.362
▁steps	-10.3622
▁message	-10.3623
▁तुम्ही	-10.3631
▁वेबसाइट	-10.3631
▁contact	-10.3637
▁heat	-10.3638
▁beginning	-10.3638
▁ground	-10.3642
▁goes	-10.3643
▁அப்படி	-10.3644
▁पोलिसांनी	-10.3645
▁Its	-10.3646
ger	-10.3646
▁ઇ	-10.3646
▁affected	-10.3651
▁tweeted	-10.3653
▁community	-10.3654
▁करके	-10.3655
▁बनाए	-10.3657
ದ್ದ	-10.3659
जर	-10.366
▁उत्पादन	-10.366
▁infection	-10.366
पति	-10.3674
su	-10.3675
▁यात्रा	-10.3677
▁birth	-10.3677
ৃ	-10.3679
ron	-10.368
रिया	-10.3682
ಗಳಿಂದ	-10.3684
▁महिलाओं	-10.3685
▁अन	-10.3686
ಖ	-10.3686
કી	-10.369
▁શરૂ	-10.369
▁ಇದಕ್ಕೆ	-10.3694
ie	-10.3694
▁लागू	-10.37
▁ways	-10.37
▁ਵਾਲੇ	-10.3701
▁कप	-10.3702
▁subject	-10.3705
▁Wi	-10.3705
योग	-10.3708
পুর	-10.3708
ોને	-10.3709
▁able	-10.3712
▁Bharat	-10.3713
▁करेगा	-10.3714
શ્	-10.3715
यों	-10.3719
▁ಮಾತ್ರ	-10.372
▁ನೋಡ	-10.3721
▁takes	-10.3721
▁follow	-10.3728
▁इनमें	-10.3729
▁कृषि	-10.3732
▁knowledge	-10.3732
▁गृह	-10.3733
▁talking	-10.3737
▁விட	-10.3741
▁rights	-10.3741
▁उद्योग	-10.3743
ಯಾಗಿ	-10.3748
ization	-10.3753
▁developed	-10.3755
ਨੇ	-10.3757
▁করছি	-10.3758
ves	-10.3761
ঠ	-10.3763
▁बाजार	-10.3763
▁ಸರ್ಕಾರ	-10.3767
▁विजय	-10.3767
▁গেছে	-10.3769
▁ಎರಡು	-10.3771
▁upon	-10.3774
▁मां	-10.3776
▁ਹੋਇਆ	-10.3779
▁चुके	-10.3779
▁बेहद	-10.3782
ாய்	-10.3784
▁Chennai	-10.3784
ण्यासाठी	-10.3786
ಿಯ	-10.3786
▁તેમણે	-10.3786
▁management	-10.379
▁seized	-10.3793
▁trust	-10.3802
▁ਸ਼ੁਰੂ	-10.3802
▁buy	-10.3805
वार	-10.3805
▁Ar	-10.3806
ंना	-10.3807
dar	-10.3813
▁baby	-10.3816
CP	-10.382
▁उम्मीद	-10.382
▁site	-10.3821
सि	-10.3822
▁named	-10.3834
▁passengers	-10.3836
ai	-10.3838
▁claimed	-10.3838
▁म्हणजे	-10.3842
ali	-10.3845
▁बॉलीवुड	-10.3848
▁Finance	-10.3849
▁nature	-10.385
▁समिति	-10.385
▁inter	-10.3852
▁gas	-10.3852
नंतर	-10.3854
गो	-10.3855
▁ಬಿ	-10.3858
38	-10.3859
for	-10.3863
ಸು	-10.3868
mortem	-10.3874
pl	-10.3875
▁एम	-10.3876
▁alleged	-10.3877
শু	-10.3879
வர	-10.3879
১	-10.3881
PC	-10.3883
िस	-10.3884
त्व	-10.3886
cent	-10.3886
para	-10.3889
▁Bar	-10.3889
▁force	-10.3892
▁જરૂરી	-10.3893
▁photo	-10.3893
▁cities	-10.3896
▁કાર્ય	-10.3903
▁இருந்தது	-10.3908
▁ઘણા	-10.391
▁purpose	-10.3913
▁Ca	-10.3917
▁पहुंची	-10.3918
▁ಬರ	-10.3919
▁बल	-10.3919
▁ਕੀਤੇ	-10.392
▁पाया	-10.3924
▁town	-10.3929
44	-10.3929
▁Cabinet	-10.3931
▁તેમની	-10.3934
राव	-10.394
રુ	-10.394
▁method	-10.3942
▁આવ્યા	-10.3943
▁સરળ	-10.3944
▁caused	-10.3945
▁दें	-10.3951
pal	-10.3954
▁தர	-10.3955
ਵੀ	-10.3955
elect	-10.3957
▁ಕೇಂದ್ರ	-10.3957
▁heard	-10.3958
ors	-10.3958
ফে	-10.3964
▁Li	-10.3966
▁Y	-10.3969
▁যদি	-10.3975
▁looks	-10.3978
▁ಕಾ	-10.3984
ಹಿ	-10.3985
▁seriously	-10.3987
▁famous	-10.3987
There	-10.3994
▁poor	-10.3997
▁ਮੈਨੂੰ	-10.3997
▁स्कूल	-10.4001
▁દિવસ	-10.4002
▁Former	-10.4004
cal	-10.4006
▁সেখানে	-10.4015
▁मेरा	-10.4016
▁चित्रपट	-10.4019
ail	-10.402
▁late	-10.4021
▁investment	-10.4022
▁कोरोना	-10.4023
▁થઇ	-10.4024
▁ಆರೋಗ್ಯ	-10.4025
▁31	-10.4025
▁राजस्थान	-10.4026
log	-10.4026
ਆਈ	-10.4034
▁ਸ਼ਾਮਲ	-10.4037
ভে	-10.4038
نگ	-10.404
ಿಕೆ	-10.4046
ಂಬ	-10.4053
▁accept	-10.4056
▁environment	-10.4057
▁ਜਾਂਦਾ	-10.4058
"""	-10.4058
▁seven	-10.4063
▁diesel	-10.4063
▁stated	-10.4063
▁Russia	-10.4066
▁अमित	-10.4072
▁सर	-10.4078
gen	-10.408
गु	-10.408
▁useful	-10.4082
▁এত	-10.4084
ডে	-10.4084
तू	-10.4085
▁Bi	-10.409
▁watch	-10.4095
▁पंतप्रधान	-10.4095
▁देखा	-10.4095
▁भा	-10.4097
यु	-10.4099
▁સુ	-10.4099
ries	-10.41
▁मन	-10.41
▁ದೊಡ್ಡ	-10.4107
▁नुकसान	-10.411
▁लिखा	-10.4113
▁highest	-10.4115
hat	-10.4117
▁source	-10.4121
▁मार्ग	-10.4122
▁जनता	-10.4125
▁બો	-10.4126
.”	-10.4129
ಂತ	-10.4133
▁impact	-10.4134
▁himself	-10.4136
▁सुविधा	-10.4137
ants	-10.4139
▁जिससे	-10.4139
▁Jehovah	-10.414
ਸਰ	-10.414
डर	-10.4142
▁religion	-10.4146
▁کیا	-10.4148
42	-10.415
ft	-10.415
▁protest	-10.4153
ib	-10.4155
धर	-10.4158
▁त्याच्या	-10.416
▁offer	-10.4162
▁चला	-10.4168
ਝ	-10.4171
▁कौन	-10.4171
શિ	-10.4174
ified	-10.4174
એસ	-10.4175
ਜ਼ਾ	-10.4175
▁तलाश	-10.4177
▁Commissioner	-10.4178
▁demand	-10.418
ನೋ	-10.4181
▁अतिरिक्त	-10.4182
ath	-10.4184
▁super	-10.4187
▁Your	-10.4188
▁मंदिर	-10.4188
▁early	-10.4192
▁सामना	-10.4197
ટો	-10.4198
ळा	-10.4203
▁haven	-10.4205
▁पूर्ण	-10.4205
মন	-10.421
▁पहचान	-10.4213
▁পর্যন্ত	-10.422
uit	-10.4221
▁direction	-10.4224
▁હવે	-10.4225
▁ਲੋਕ	-10.4229
ेंगे	-10.4229
ler	-10.4231
▁सध्या	-10.4233
হার	-10.4236
▁প্রশ্ন	-10.4238
▁ಸಹಾಯ	-10.4239
▁कश्मीर	-10.424
▁begin	-10.4243
ंक	-10.4245
▁old	-10.4246
▁ਦੌਰਾਨ	-10.4246
ण्याची	-10.4246
fr	-10.4248
ble	-10.4253
▁ಇನ್ನೂ	-10.4253
ay	-10.4254
▁क्षमता	-10.4254
▁access	-10.4254
▁કારણ	-10.4259
▁Patel	-10.4261
ಸೋ	-10.4262
নার	-10.4263
▁જેમાં	-10.4266
▁kids	-10.427
▁ખરેખર	-10.427
▁warm	-10.4271
પા	-10.4273
▁Virat	-10.4278
▁screen	-10.4279
ಯೋ	-10.4282
ન્ડ	-10.4287
ஷ்	-10.4291
▁அதற்கு	-10.4295
▁App	-10.4295
-1	-10.4297
িং	-10.4298
sal	-10.4299
▁पिता	-10.4302
ಟೆ	-10.4302
▁धर्म	-10.4307
▁મુખ્ય	-10.4308
ડો	-10.431
▁identified	-10.4316
ಗಾಗಿ	-10.4321
▁dream	-10.4321
▁loved	-10.4323
▁income	-10.4323
ible	-10.4324
▁উপর	-10.4324
▁Afghanistan	-10.4325
বেন	-10.4326
▁Si	-10.4328
ண்	-10.4329
▁চা	-10.4329
টাই	-10.4331
▁easily	-10.4333
▁મળી	-10.4335
▁மாற்ற	-10.4337
▁৷	-10.4339
▁movement	-10.4341
ಲಿದೆ	-10.4343
▁session	-10.4343
▁हासिल	-10.4344
▁दु	-10.4344
કે	-10.4345
ped	-10.4348
▁board	-10.4349
▁नही	-10.4352
▁(1	-10.4352
▁legal	-10.4362
light	-10.4362
▁ಬಂದ	-10.4364
▁सरकारी	-10.4364
▁सोच	-10.4371
▁பற்றி	-10.4371
▁photos	-10.4373
▁તમારી	-10.4376
▁almost	-10.4378
नर	-10.4378
ward	-10.4379
▁ಎಂದರು	-10.4381
भाव	-10.4382
ोर	-10.4382
▁خ	-10.4382
पो	-10.4385
▁MP	-10.4392
निर्	-10.4392
▁individual	-10.4402
lay	-10.4402
▁Anyone	-10.4405
▁ওই	-10.4407
ਬਰ	-10.4409
▁ಕಡಿಮೆ	-10.441
▁opinion	-10.4413
▁eight	-10.4414
ப்பட்டுள்ளது	-10.4415
▁Lord	-10.4418
ory	-10.4419
▁नागरिक	-10.4424
▁Before	-10.4428
pass	-10.4432
▁absolutely	-10.4438
▁terms	-10.4441
sur	-10.4442
▁jail	-10.4444
▁trade	-10.4446
▁ಸಮಯ	-10.4446
49	-10.4447
ತರ	-10.4452
str	-10.4456
▁ਤੱਕ	-10.4457
▁cancer	-10.446
▁जानते	-10.4462
▁vehicle	-10.4464
কর	-10.4464
sk	-10.4466
▁kept	-10.4467
▁Facebook	-10.4467
▁Assam	-10.4468
▁જોવા	-10.4469
""""	-10.4477
▁secretary	-10.4478
▁આવ્યો	-10.4478
ator	-10.4479
கட்ட	-10.4482
ेज	-10.4484
▁IPL	-10.4486
▁पुरस्कार	-10.4491
▁PIB	-10.4494
▁image	-10.4495
ত্ব	-10.45
▁शोध	-10.45
▁খুবই	-10.4502
▁चाहता	-10.4506
▁ਬਣ	-10.4507
▁charge	-10.4508
99	-10.4508
চে	-10.4509
जल	-10.4517
▁સામાન્ય	-10.4517
if	-10.4517
▁ನಿಮಗೆ	-10.4523
▁কো	-10.4525
▁अधिकार	-10.4529
▁डॉक्टर	-10.4531
চার	-10.4536
▁சொல்ல	-10.4537
nic	-10.4538
ર્સ	-10.4542
▁आए	-10.4544
ಗಾ	-10.455
14	-10.4551
▁cultural	-10.4553
৫	-10.4553
▁आयोग	-10.4553
▁परि	-10.4555
টির	-10.4558
र्ग	-10.4558
▁ಕಾಂಗ್ರೆಸ್	-10.4559
▁Africa	-10.4562
▁स्थानीय	-10.4563
▁ಕ್ರಮ	-10.4566
▁வரை	-10.4568
nal	-10.4571
▁দিতে	-10.4576
▁ਲੋੜ	-10.4582
▁अशा	-10.4583
▁festival	-10.4588
▁धारा	-10.459
▁Their	-10.4591
मैं	-10.4593
▁ಪ್ರಶ್ನೆ	-10.4594
▁Ho	-10.4596
▁fans	-10.46
▁অনু	-10.4606
▁economy	-10.4608
qu	-10.4609
ಮೂ	-10.4609
▁व्यवस्था	-10.4609
▁ਸਿ	-10.4612
ਖ਼	-10.462
▁পারেন	-10.4623
▁जाए	-10.4624
છ	-10.4629
भा	-10.4629
▁कदम	-10.4631
ेत	-10.4633
சு	-10.4638
way	-10.4643
▁becomes	-10.4647
▁whether	-10.4647
▁concerned	-10.4649
by	-10.4651
▁Deputy	-10.4651
▁America	-10.4652
▁friend	-10.4654
ations	-10.4654
▁launch	-10.4658
▁सच	-10.4661
▁Instagram	-10.4663
▁लगातार	-10.4664
▁रखने	-10.4667
▁चालक	-10.4674
▁লোক	-10.4675
▁செய்து	-10.4675
▁হিসেবে	-10.4678
▁विदेश	-10.4679
राज	-10.468
▁75	-10.4688
▁सम	-10.4691
फो	-10.4692
गत	-10.4696
ps	-10.47
▁रखा	-10.4705
ವ್	-10.4705
▁self	-10.4708
▁ਪਾ	-10.4713
▁fled	-10.4717
हर	-10.472
ara	-10.4721
▁அனைத்து	-10.4722
▁Rohit	-10.4722
dge	-10.4723
வீ	-10.4725
▁ভয়	-10.4725
▁ਮੁ	-10.4726
ાઇ	-10.4731
▁पोस्टमार्टम	-10.4733
▁agree	-10.4734
▁Women	-10.4735
▁नेतृत्व	-10.4743
▁mixture	-10.4743
பட்ட	-10.4745
ૉ	-10.4746
▁প্রধান	-10.4748
▁Mu	-10.4749
▁ਉ	-10.475
फि	-10.4751
▁notice	-10.4753
▁जगह	-10.4754
ਅਰ	-10.4755
▁looked	-10.4759
ಿಕ	-10.4762
▁careful	-10.4764
सु	-10.4765
▁tax	-10.4767
▁dry	-10.477
ST	-10.4783
▁સરકાર	-10.4786
▁Posted	-10.4786
स्ट्र	-10.4787
▁itself	-10.4787
৩	-10.479
ੰਦ	-10.4793
پ	-10.4795
▁petition	-10.4795
▁આપી	-10.4795
मधील	-10.4796
▁knew	-10.4798
▁કરવાની	-10.4798
▁airport	-10.4799
গা	-10.48
ਡਾ	-10.4803
▁લો	-10.4805
▁wickets	-10.4807
fall	-10.4809
▁doubt	-10.481
▁याचिका	-10.4816
▁built	-10.4817
▁benefits	-10.4818
▁வேலை	-10.4821
▁वै	-10.4821
side	-10.4821
▁छोड़	-10.4821
কো	-10.4822
▁तरफ	-10.4827
तंत्र	-10.4827
ૈ	-10.483
ப்பட்டது	-10.4831
सह	-10.4831
▁उम्मीदवार	-10.4832
टन	-10.4833
ांचे	-10.4835
ीकरण	-10.4836
▁રહ્યો	-10.4853
▁पसंद	-10.4854
ছিলেন	-10.4854
▁employees	-10.4855
}	-10.4855
ಕ್ಕೂ	-10.4855
▁अभिनेत्री	-10.4858
east	-10.486
▁essential	-10.4861
பு	-10.4862
▁शिव	-10.4866
▁ভারতের	-10.4868
▁Force	-10.4874
▁gets	-10.4877
▁आधिकारिक	-10.488
▁शि	-10.488
गे	-10.4881
▁सांग	-10.4882
und	-10.4883
▁discuss	-10.4884
▁focus	-10.4884
ील	-10.4887
▁मदत	-10.4887
ંડ	-10.4888
▁राष्ट्र	-10.4891
▁योग्य	-10.4896
▁makes	-10.4896
▁star	-10.4898
▁custody	-10.4901
▁candidate	-10.4903
ৌ	-10.4904
▁crime	-10.4909
▁citizens	-10.4911
▁drug	-10.4913
▁त्यानंतर	-10.4918
શા	-10.492
bat	-10.4922
▁hit	-10.4925
▁यात	-10.4926
▁ಬಣ್ಣ	-10.4927
ाइट	-10.4928
▁भविष्य	-10.4928
▁Ad	-10.4928
ಾದ	-10.4929
▁થયા	-10.4929
▁ஆகும்	-10.4929
ডা	-10.4929
▁computer	-10.493
▁$	-10.4935
▁पो	-10.494
▁afraid	-10.494
▁Other	-10.4945
form	-10.4948
ಿಸಿ	-10.495
▁ಅನೇಕ	-10.4956
▁wish	-10.4964
▁houses	-10.4968
▁संपर्क	-10.4971
▁हमले	-10.4972
ரோ	-10.4973
▁पड़	-10.4975
▁Although	-10.4976
▁निजी	-10.4977
▁ಎಂಬ	-10.4982
95	-10.4983
यां	-10.4983
▁તેમ	-10.4984
▁વિવિધ	-10.4985
▁press	-10.4986
▁link	-10.4986
▁થશે	-10.4987
।"""	-10.4987
ખા	-10.4989
▁internal	-10.4995
▁इतर	-10.4996
નિ	-10.4998
▁physical	-10.4999
▁sign	-10.5003
▁ਕੁ	-10.5004
▁mistake	-10.5005
পু	-10.5005
दर	-10.5006
▁Research	-10.5007
पूर्वी	-10.5009
▁உள்ளன	-10.5009
▁examples	-10.5011
▁lower	-10.5011
▁symptoms	-10.5013
বাস	-10.5015
▁કેટલાક	-10.5017
cro	-10.5019
▁लोकसभा	-10.5023
पै	-10.5028
▁वर्ग	-10.5029
নী	-10.5033
cha	-10.5038
ore	-10.5042
▁सड़क	-10.5042
ਮੋ	-10.5042
▁रन	-10.5046
▁demanded	-10.5046
tain	-10.5046
▁Da	-10.5049
वान	-10.5051
ಳು	-10.5053
ಕಾರ	-10.5054
▁આવશે	-10.5062
ગ્	-10.5063
▁प्रवेश	-10.5063
▁quickly	-10.5064
▁safety	-10.5068
▁ব্যবস্থা	-10.5069
▁2017	-10.507
▁therefore	-10.5071
▁खर्च	-10.5071
▁capacity	-10.5072
ರಿಯ	-10.5072
▁amazing	-10.5074
▁કરીને	-10.5075
▁आसान	-10.5076
▁ज्या	-10.5078
▁पोस्ट	-10.508
▁Several	-10.5081
ುತ್ತೇವೆ	-10.5081
▁via	-10.5092
ious	-10.5094
ांमध्ये	-10.5095
▁સારી	-10.5098
ns	-10.51
டா	-10.5101
▁முடிய	-10.5104
▁छात्रों	-10.5106
And	-10.5108
▁content	-10.5109
डि	-10.511
▁Sha	-10.5112
▁word	-10.5112
▁भारी	-10.5117
বাদ	-10.5117
ಬೇ	-10.5118
▁ক্ষেত্রে	-10.5118
▁बाल	-10.512
▁patient	-10.5121
ಜೆ	-10.5121
ving	-10.5122
ದ್ದು	-10.5122
৪	-10.5124
43	-10.5125
▁ਇਨ੍ਹਾਂ	-10.5125
ান	-10.5126
ਨਾਂ	-10.5127
▁प्रभावित	-10.5128
▁stand	-10.513
▁ಮಾಹಿತಿ	-10.5136
▁laws	-10.5137
▁evidence	-10.5137
ண்ட	-10.5138
▁House	-10.5139
▁table	-10.514
▁தான்	-10.5142
▁ಯಾವ	-10.5143
▁mis	-10.5143
▁campaign	-10.5144
39	-10.5146
my	-10.5148
▁Par	-10.515
ੋਂ	-10.515
खे	-10.5151
▁एंड	-10.5152
▁घ्या	-10.5157
▁সম্ভব	-10.5157
▁व्यक्त	-10.5157
▁sad	-10.5158
▁अली	-10.5158
தோ	-10.5159
▁सह	-10.516
▁hear	-10.516
▁While	-10.5161
▁উচিত	-10.5164
cket	-10.5167
▁Sam	-10.5169
அ	-10.5169
▁term	-10.5169
▁Andhra	-10.5171
▁Our	-10.5172
▁avoid	-10.5178
▁facilities	-10.5179
▁29	-10.5181
▁ಐ	-10.5181
▁tried	-10.5181
દિ	-10.5182
ष्ट	-10.5183
▁দিকে	-10.5183
ಪ್ರ	-10.5184
ेश	-10.5186
વાની	-10.5191
ಂಡ	-10.5197
رو	-10.5199
▁deceased	-10.52
গো	-10.5201
▁अशी	-10.5201
▁administration	-10.5201
wal	-10.5204
▁समान	-10.5204
▁act	-10.5205
िट	-10.5212
▁छात्र	-10.5213
▁excellent	-10.5214
SC	-10.5218
▁બદલ	-10.5219
▁Hyderabad	-10.5219
▁সবাই	-10.522
▁line	-10.5222
▁cr	-10.5223
▁विमान	-10.5223
▁રાજ્ય	-10.5228
▁ಬಳಸ	-10.5229
▁maximum	-10.5229
▁stopped	-10.5232
▁अव	-10.5235
▁Kar	-10.5236
▁वाट	-10.5236
ுங்கள்	-10.5237
▁Actor	-10.5238
ob	-10.5238
▁coronavirus	-10.5253
स्प	-10.5253
▁नंबर	-10.5254
▁लग	-10.5256
bu	-10.5259
ளி	-10.5261
▁bench	-10.5264
▁பேச	-10.5267
-20	-10.5267
▁ಕೆ	-10.5268
▁Ask	-10.527
हु	-10.527
▁Sena	-10.5273
▁review	-10.5274
▁south	-10.5275
▁reach	-10.5275
ency	-10.5277
சை	-10.5278
्‍य	-10.5279
▁सुनिश्चित	-10.5282
▁chance	-10.5283
मु	-10.5284
85	-10.5287
▁record	-10.5292
▁তাহলে	-10.5294
▁Road	-10.5295
ભાવ	-10.5301
र्न	-10.5301
▁वर्तमान	-10.5302
▁ખ	-10.5306
▁ਮਿਲ	-10.5307
▁ಹೊರ	-10.5309
▁practice	-10.531
ny	-10.531
▁saw	-10.5312
વર્	-10.5312
یا	-10.5314
▁ছবি	-10.5318
ಿಂದ	-10.5318
▁रोग	-10.532
▁যেতে	-10.5321
▁program	-10.5322
▁நல்ல	-10.5322
▁अंतिम	-10.5324
▁দরকার	-10.5326
India	-10.5328
ন্দ	-10.533
▁கேள்வி	-10.5334
▁பயன்படுத்த	-10.5335
ಲಾಗುತ್ತದೆ	-10.5335
તુ	-10.5338
▁Wa	-10.5339
▁colors	-10.5344
▁Un	-10.5349
ેશન	-10.5353
▁राजनीतिक	-10.5356
▁complex	-10.5357
▁जास्त	-10.536
▁தேவை	-10.5361
▁significant	-10.5362
▁prime	-10.5364
ਬਲ	-10.5365
▁साल	-10.5367
▁2022	-10.5368
▁তাতে	-10.5368
▁दूसरी	-10.537
▁unique	-10.5376
خ	-10.538
tive	-10.5385
▁व्यापार	-10.5391
▁હાથ	-10.5394
▁evening	-10.5398
મુ	-10.5398
போது	-10.5402
ائ	-10.5403
ਜਿ	-10.5404
ಸ್ತ	-10.5404
टि	-10.5406
▁Election	-10.5408
्र	-10.541
so	-10.5411
ct	-10.5412
ર્ટ	-10.5413
▁develop	-10.5417
ਸਤ	-10.5417
ake	-10.542
▁ಹೊಂದಿದೆ	-10.542
▁Sanjay	-10.5426
▁conference	-10.5429
▁carried	-10.5431
கே	-10.5432
▁চলে	-10.5434
▁बल्कि	-10.5435
ঝ	-10.5436
আ	-10.5437
▁২০	-10.544
ਮੇ	-10.5446
▁science	-10.5449
▁structure	-10.5455
ગ્ર	-10.5456
mu	-10.5456
▁नवीन	-10.5458
▁joined	-10.5459
▁यहाँ	-10.5462
▁ಅವರಿಗೆ	-10.547
▁स्वीकार	-10.5471
ீ	-10.5472
யோ	-10.5475
io	-10.5476
ಜನ	-10.5478
based	-10.5478
ਟਾ	-10.5479
▁ಪಡೆಯ	-10.5481
▁users	-10.5483
ಟಾ	-10.5484
▁sides	-10.5489
ण्या	-10.5491
▁एक्स	-10.5491
द्ध	-10.5491
▁speed	-10.5492
row	-10.5492
▁negative	-10.5493
▁device	-10.5493
▁ਵੱਧ	-10.5494
era	-10.5494
▁remains	-10.5498
▁books	-10.5499
▁consult	-10.5501
▁বিভিন্ন	-10.5502
za	-10.5502
▁घोषित	-10.5506
ক্	-10.5508
her	-10.5509
lin	-10.551
▁પોલીસે	-10.5512
▁दिशा	-10.5513
▁*	-10.5513
▁comment	-10.5513
No	-10.5515
nor	-10.5517
▁award	-10.5518
▁ಮೋದಿ	-10.552
ચિ	-10.552
▁যেন	-10.5521
ब्र	-10.5521
▁निवेश	-10.5522
▁Kolkata	-10.5522
▁religious	-10.5522
▁seat	-10.5523
वाह	-10.5528
56	-10.5529
▁Pre	-10.5529
ગો	-10.553
▁रोक	-10.5531
ਰਿ	-10.5532
▁receive	-10.5535
▁हरियाणा	-10.5536
▁করছে	-10.5536
▁petrol	-10.5537
▁responsible	-10.5537
▁সত্য	-10.5539
ियन	-10.554
▁song	-10.554
▁વ્યક્તિ	-10.5545
pen	-10.5548
▁host	-10.5548
▁receiving	-10.5552
ham	-10.5558
▁target	-10.5559
▁competition	-10.556
▁ਪੈ	-10.5562
ರೀ	-10.5563
▁প্রায়	-10.5564
ांत	-10.5566
তু	-10.5566
ির	-10.5567
கொ	-10.5569
▁Google	-10.5569
▁करण्यासाठी	-10.5573
ನಗರ	-10.5575
▁path	-10.5575
▁વચ્ચે	-10.5584
gan	-10.5585
▁सुरक्षित	-10.5586
▁separate	-10.5586
pp	-10.5589
lie	-10.5592
ಗೋ	-10.5597
”.	-10.56
▁सांसद	-10.5601
▁presented	-10.5602
▁प्रेम	-10.5606
▁তথ্য	-10.5607
▁figure	-10.5611
▁save	-10.5612
यी	-10.5613
ন্ট	-10.5613
▁वापस	-10.5614
▁north	-10.5617
▁मूल्य	-10.5618
▁बिना	-10.562
▁Students	-10.5623
સર	-10.5624
▁कोविड	-10.5626
▁page	-10.5632
દો	-10.5635
▁ಅತ್ಯಂತ	-10.5635
▁देना	-10.5637
▁groups	-10.5638
▁followed	-10.5638
ಡಾ	-10.5639
iya	-10.5639
▁કોઇ	-10.564
▁चुका	-10.5642
▁सामाजिक	-10.5644
▁degree	-10.5646
▁இருந்து	-10.5648
▁ऑनलाइन	-10.5648
▁लाल	-10.5648
ವರ	-10.5651
▁violence	-10.5653
▁hot	-10.5654
▁Below	-10.5656
fer	-10.5657
ਪੁਰ	-10.5658
म्प	-10.5659
ळी	-10.566
▁करणे	-10.5664
oc	-10.5664
▁strength	-10.5665
lam	-10.5666
bal	-10.5668
ंब	-10.5671
▁garlic	-10.5674
▁ਦਰਜ	-10.5675
▁Shiv	-10.5675
▁अंतर	-10.5677
▁ठेव	-10.5681
▁અલગ	-10.5682
▁दिला	-10.5682
▁onion	-10.5685
qui	-10.569
चित्र	-10.569
▁ગુ	-10.569
تا	-10.5693
০	-10.5696
▁direct	-10.5697
ಂಗ್	-10.57
्ट	-10.5701
ಕೊ	-10.5704
▁আসলে	-10.5705
▁হাসপাতালে	-10.5705
au	-10.5706
▁sound	-10.5706
ச்சி	-10.5707
▁opportunities	-10.571
ಯ್	-10.5714
▁giving	-10.5718
bin	-10.5719
▁ಹೇಳಿದರು	-10.5719
all	-10.5723
▁seems	-10.5725
▁মামলা	-10.5727
ash	-10.5732
▁खुश	-10.5734
▁Cup	-10.5738
▁Bachchan	-10.5739
पट	-10.574
▁leading	-10.5741
print	-10.5741
▁’’	-10.5742
▁size	-10.5747
▁পরি	-10.5747
▁ऑस्ट्रेलिया	-10.5749
ਐਸ	-10.5751
▁দেখতে	-10.5752
▁মতো	-10.5754
▁बनाया	-10.5754
तः	-10.5755
▁ತನಿಖೆ	-10.5755
▁marriage	-10.5759
▁limit	-10.5768
▁સામે	-10.577
▁unit	-10.5771
ाइ	-10.5773
▁ভারত	-10.5774
ಿರಲಿಲ್ಲ	-10.5774
▁ગયા	-10.5776
▁discussion	-10.5776
▁আইন	-10.5777
स्य	-10.5777
▁વધારે	-10.5783
▁Every	-10.5784
▁ਆਪਣੀ	-10.5786
હિ	-10.5787
ुक	-10.579
▁जरूरी	-10.579
▁handed	-10.579
▁Kha	-10.5799
▁प्रभाव	-10.5799
51	-10.5799
भर	-10.58
ਐ	-10.5803
we	-10.5806
▁लड़	-10.5806
यह	-10.5807
ವರೆಗೆ	-10.5811
পক্ষে	-10.5817
▁সুতরাং	-10.5817
▁bar	-10.5819
▁cooperation	-10.5819
▁সাহায্য	-10.5826
ચો	-10.5827
ਯੋਗ	-10.583
ಇ	-10.5831
▁shooting	-10.5834
अर	-10.5835
dal	-10.5836
▁கொள்ள	-10.584
5,000	-10.584
ಂಗ	-10.5843
▁river	-10.5847
ியது	-10.5849
▁ಪ್ರಮುಖ	-10.5855
রাজ	-10.5857
ચે	-10.586
▁बातचीत	-10.586
▁আরো	-10.5861
এম	-10.5862
খা	-10.5877
▁सके	-10.5879
AI	-10.588
▁x	-10.5881
▁আশা	-10.5882
▁येथे	-10.5882
▁challenge	-10.5883
75	-10.5885
▁गोष्टी	-10.5885
ವಲ್ಲ	-10.5886
▁hasn	-10.5887
▁पहला	-10.5889
▁চেয়ে	-10.5893
પ્ર	-10.5894
યો	-10.5899
▁ಪೊಲೀಸ್	-10.59
▁ਮਾਮਲੇ	-10.5901
▁hold	-10.5904
▁learning	-10.5906
றை	-10.5907
▁paper	-10.591
▁समूह	-10.5911
▁ব্যাপার	-10.5911
▁128	-10.5912
र्ट	-10.5912
▁simply	-10.5912
▁এরপর	-10.5913
▁જોકે	-10.5913
▁હશે	-10.5913
ૃ	-10.5913
▁contest	-10.5914
▁biggest	-10.5915
▁तुम्हाला	-10.5915
▁Asia	-10.5915
iv	-10.5915
सोबत	-10.5916
ுடைய	-10.5916
▁করবে	-10.5917
▁આપવામાં	-10.5918
▁Or	-10.5922
▁বিশেষ	-10.5923
IC	-10.5924
▁totally	-10.5924
ಕರ್	-10.5925
▁કારણે	-10.5929
सार	-10.5932
▁Special	-10.5939
ப்படுத்த	-10.5939
▁সরকার	-10.594
▁measures	-10.594
ಕು	-10.5941
70	-10.5945
ढ़	-10.5945
▁இந்தியா	-10.5948
आय	-10.5949
கள	-10.595
▁career	-10.5952
ਜਾ	-10.5952
▁Read	-10.5956
▁हिरासत	-10.5961
ಿರಿ	-10.5962
▁ஐ	-10.5962
▁ਕਿਵੇਂ	-10.5963
स्‍	-10.5965
▁Kan	-10.5969
▁ای	-10.597
52	-10.5971
▁गये	-10.5973
▁wants	-10.5974
▁মো	-10.5979
முறை	-10.598
▁confirmed	-10.5983
▁नया	-10.5984
কাল	-10.5987
▁girls	-10.5987
ip	-10.5991
▁cash	-10.5992
ொ	-10.5994
You	-10.5995
ுவது	-10.5998
▁முடியும்	-10.6002
▁சா	-10.6004
▁पड	-10.6009
▁names	-10.6011
யு	-10.6011
00	-10.6011
▁कर्नाटक	-10.6012
ਯ	-10.6015
▁Chinese	-10.6016
thi	-10.602
▁अनुमति	-10.6025
न्या	-10.6026
पर्यंत	-10.6027
▁तेज	-10.6027
▁নিজের	-10.6028
ટર	-10.603
▁ಸಚಿವ	-10.6031
ार	-10.6036
cap	-10.6036
▁स्मार्टफोन	-10.6037
▁cover	-10.6038
੍ਹ	-10.6038
rank	-10.6047
্র	-10.6048
▁ऊर्जा	-10.6049
ನಾಯಕ	-10.6051
▁ಇದರಿಂದ	-10.6059
ರಲ್ಲಿ	-10.6063
▁سی	-10.6063
▁range	-10.6067
ड़े	-10.6067
▁approach	-10.607
▁specific	-10.6078
▁வழி	-10.6079
▁British	-10.6079
▁Available	-10.608
▁colour	-10.6084
ப்பி	-10.6084
▁खास	-10.6084
▁सीटों	-10.6088
কের	-10.6088
▁निश्चित	-10.6092
पासून	-10.6093
▁professional	-10.6095
▁দল	-10.6096
▁sometimes	-10.6097
▁প্রধানমন্ত্রী	-10.6098
▁একই	-10.6098
এর	-10.6098
▁বলা	-10.6101
▁জা	-10.6104
▁2014	-10.6104
▁ਜੇ	-10.6104
▁ਮੌਕੇ	-10.6106
▁சேர்த்து	-10.6107
cre	-10.6108
▁सहायता	-10.6109
▁সহ	-10.6112
ਲੋ	-10.6117
ஷ	-10.6119
▁critical	-10.6121
54	-10.6121
ਪਾ	-10.6122
▁உண்மை	-10.6125
ple	-10.6126
▁শুধু	-10.6127
▁नेताओं	-10.6128
▁exam	-10.6128
▁જાય	-10.6129
connect	-10.6131
▁ਭਾਰਤੀ	-10.6131
ಣ್ಣ	-10.6131
▁Vice	-10.6131
वीं	-10.6135
▁बै	-10.6136
▁வேறு	-10.6137
▁அவ	-10.6138
▁समाज	-10.6144
▁Telugu	-10.6147
▁બાળકો	-10.6147
▁दावा	-10.6149
▁করবেন	-10.6151
aj	-10.6153
▁ફ	-10.6153
▁Corporation	-10.6154
▁অংশ	-10.6157
ல்ல	-10.6157
▁பெற	-10.6158
▁ಘಟನೆ	-10.6158
ंगा	-10.6163
strict	-10.6164
▁मृत्यू	-10.6165
▁railway	-10.6166
▁પી	-10.6169
ಂದು	-10.6171
ોની	-10.6173
िए	-10.6174
▁ਅਸਲ	-10.6177
રસ	-10.6178
ৰ	-10.6179
▁Muslim	-10.6179
pet	-10.6179
▁ત્રણ	-10.6183
रस	-10.6183
▁touch	-10.6185
▁વિચાર	-10.6186
▁fish	-10.6186
ाइल	-10.6187
raj	-10.619
cc	-10.619
▁raised	-10.6191
▁achieve	-10.6198
▁তৈরি	-10.6202
ਭਾ	-10.6204
દર	-10.6205
▁மாநில	-10.6205
हित	-10.6206
▁ব্যক্তি	-10.6209
▁Gu	-10.6211
▁ಬೆ	-10.6211
▁dont	-10.6211
right	-10.6214
ইন	-10.6214
▁Officer	-10.6215
▁War	-10.6215
▁acid	-10.6216
▁military	-10.6228
▁interview	-10.623
▁جو	-10.623
ition	-10.623
▁बढ़ा	-10.6231
▁vegetables	-10.6231
▁बारिश	-10.6232
▁प्रयत्न	-10.6232
ising	-10.6233
ক্স	-10.6234
▁तरी	-10.6236
त्त	-10.6239
rat	-10.624
▁सार्वजनिक	-10.6243
▁সত্যি	-10.6243
ेट	-10.6244
बि	-10.6246
ina	-10.6249
As	-10.6251
ਦਿ	-10.6252
▁முறை	-10.6255
য়ের	-10.6258
لا	-10.6259
▁ಚೆನ್ನಾಗಿ	-10.6261
▁recent	-10.6264
▁scene	-10.6266
▁मेगापिक्सल	-10.6268
▁cut	-10.627
▁मिलने	-10.6271
▁संभावना	-10.6272
▁student	-10.6274
▁Bu	-10.6274
▁शुरुआत	-10.6277
▁पार	-10.6277
▁file	-10.6279
ung	-10.6282
▁அரசு	-10.6283
▁Anil	-10.6283
▁cool	-10.6283
সো	-10.629
▁जेल	-10.6291
98	-10.6292
মন্ত্রী	-10.6292
▁பெற்ற	-10.6292
▁upcoming	-10.6293
▁freedom	-10.6294
▁East	-10.6296
▁thanks	-10.6296
▁मत	-10.6298
MS	-10.6299
▁ਦੱਸਿਆ	-10.63
▁appointed	-10.6302
▁reduce	-10.6308
▁wait	-10.6322
▁tweet	-10.6323
▁இன்னும்	-10.6323
▁Group	-10.6324
▁अमेरिकी	-10.633
ਕਲ	-10.6334
▁ಕಾಲ	-10.6334
▁একটু	-10.6336
▁पोलीस	-10.6339
▁led	-10.6344
▁48	-10.6345
्‍या	-10.6345
▁center	-10.6347
ಕ್ಕಾಗಿ	-10.6349
BI	-10.6349
ਵਿ	-10.635
▁इतिहास	-10.6351
▁Additional	-10.6351
ையும்	-10.6352
▁committed	-10.6356
▁संगठन	-10.6357
▁અંગે	-10.6357
▁आठ	-10.6359
وی	-10.6363
ಪು	-10.6366
િયા	-10.6368
▁procedure	-10.6368
क्या	-10.6369
▁ਫਿਰ	-10.6375
▁Android	-10.6375
▁வெ	-10.6378
ಸ್ಟ್	-10.638
▁Following	-10.6381
▁journey	-10.6383
▁ಕೋ	-10.6387
ભર	-10.6389
ਸੋ	-10.6391
▁সমস্ত	-10.6392
▁2,	-10.6392
ंचा	-10.6396
▁राय	-10.6397
▁plays	-10.6398
ls	-10.6399
▁2016	-10.6401
▁Under	-10.6402
ழி	-10.6404
▁published	-10.6407
▁ભારતીય	-10.6407
ball	-10.6407
▁Cricket	-10.6408
ight	-10.6409
हे	-10.6414
▁mentioned	-10.6417
▁ಇವೆ	-10.6418
▁डे	-10.6421
dha	-10.6422
▁तपास	-10.6422
वत	-10.6424
ड़ी	-10.6425
▁বিরুদ্ধে	-10.6426
▁Technology	-10.643
▁Q	-10.643
ளை	-10.6431
▁नाहीत	-10.6431
▁ત્યારે	-10.6431
ಮಾರ್	-10.6432
▁Water	-10.6432
৬	-10.6439
▁मानव	-10.6441
▁उम्मीदवारों	-10.6442
▁वाहन	-10.6443
▁অভিযোগ	-10.6446
▁वेळ	-10.6452
▁உண்மையில்	-10.6454
▁জীবন	-10.6456
வின்	-10.646
ration	-10.6462
▁events	-10.6463
46	-10.6465
den	-10.6466
▁பெரிய	-10.6469
tar	-10.6472
▁certainly	-10.6472
સો	-10.6474
▁பின்னர்	-10.6475
ল্লা	-10.6477
▁institutions	-10.6479
yn	-10.648
lan	-10.648
▁Covid	-10.6483
ze	-10.6483
All	-10.6483
▁hearing	-10.6484
শন	-10.6485
काल	-10.6486
য়ার	-10.6488
pan	-10.6489
▁task	-10.6489
▁roads	-10.649
ach	-10.6491
▁जीबी	-10.6497
▁नियंत्रण	-10.6497
▁આપે	-10.6498
▁gives	-10.6499
▁যোগ	-10.65
▁দেখে	-10.65
▁ಉಪ	-10.6503
ಥ	-10.6503
▁infrastructure	-10.6506
SA	-10.6507
▁Security	-10.6508
▁তদন্ত	-10.6509
▁centre	-10.6511
▁நாங்கள்	-10.6514
िम	-10.6515
▁primary	-10.6517
રાજ	-10.6518
▁குழந்தை	-10.652
ाइड	-10.652
▁মহা	-10.6521
▁முடி	-10.6529
▁થયું	-10.6533
▁निभा	-10.6536
র্ক	-10.6536
las	-10.6539
▁400	-10.654
▁संभव	-10.654
▁भाजप	-10.6541
▁குறை	-10.6541
करण	-10.6543
▁inquiry	-10.6543
▁चाल	-10.6545
▁என்பதை	-10.6545
bar	-10.6545
iz	-10.6547
▁कहते	-10.655
फर	-10.6551
ங்	-10.6552
▁अभियान	-10.6555
ૌ	-10.6556
▁affect	-10.6561
▁cur	-10.6561
ari	-10.6562
▁कं	-10.6566
▁सात	-10.6567
▁பேர்	-10.6576
▁জল	-10.6579
▁transport	-10.658
ಕ್ಕ	-10.6583
लाइन	-10.6583
▁चिंता	-10.6584
▁vaccine	-10.6584
88	-10.6585
▁damage	-10.6585
▁સો	-10.6585
राम	-10.6589
ाबाद	-10.6589
▁இட	-10.6591
வரும்	-10.6593
விட்ட	-10.6595
▁century	-10.6597
▁போன்ற	-10.66
▁treated	-10.6606
ர்கள்	-10.6606
▁ভুল	-10.6607
▁ਜਾਂਚ	-10.661
ಮಾನ	-10.6611
▁યોગ્ય	-10.6611
▁basic	-10.6612
▁कोण	-10.6613
▁request	-10.6613
▁45	-10.6614
மூ	-10.6616
ep	-10.6616
▁वित्त	-10.6619
▁indeed	-10.6623
वाल	-10.6627
▁Yes	-10.6627
24	-10.6628
▁कप्तान	-10.6629
vision	-10.663
▁गलत	-10.6631
▁এসব	-10.6644
▁त्याचा	-10.6644
را	-10.6644
रों	-10.6647
२	-10.6647
▁ખા	-10.6648
▁relations	-10.6649
meter	-10.665
્વ	-10.665
▁आपकी	-10.665
ভাগ	-10.6652
▁ಜೊತೆಗೆ	-10.6652
▁joint	-10.6653
▁ಆಹಾರ	-10.6657
ici	-10.6658
ப்போ	-10.6659
▁Goa	-10.666
▁வந்த	-10.6662
▁आधारित	-10.6664
▁Will	-10.6664
dh	-10.6667
▁তাহা	-10.6668
▁विज्ञान	-10.6673
ஜி	-10.6675
மோ	-10.6679
மு	-10.6679
▁বুঝতে	-10.668
▁ಸಾಕಷ್ಟು	-10.6683
▁ਵਾਰ	-10.6687
45	-10.6687
लु	-10.6688
▁ಅಗತ್ಯ	-10.669
▁wedding	-10.6691
▁UP	-10.6692
પુર	-10.6692
▁protein	-10.6694
▁failed	-10.6696
ल्स	-10.6697
▁विकसित	-10.67
▁From	-10.6701
▁પસંદ	-10.6706
▁विकल्प	-10.6706
▁பிறகு	-10.6706
ಐ	-10.6707
▁Pat	-10.6709
▁புதிய	-10.6713
amp	-10.6713
35	-10.6713
67	-10.6713
▁असून	-10.6716
▁matches	-10.6717
पु	-10.6717
▁दोन्ही	-10.6718
▁அதில்	-10.672
▁धन	-10.6722
circ	-10.6722
▁अपराध	-10.6723
▁કરશે	-10.6726
▁ਰੁਪਏ	-10.6728
imp	-10.673
▁Ri	-10.6731
ेंट	-10.6732
▁victim	-10.6737
्ड	-10.6742
சே	-10.6743
▁आपल्याला	-10.6743
lar	-10.6743
▁feature	-10.6743
▁produce	-10.6745
▁ಅದಕ್ಕೆ	-10.6747
▁Governor	-10.6747
▁करून	-10.6749
▁lose	-10.675
trans	-10.6751
▁দেশ	-10.6752
▁बने	-10.6755
வெளி	-10.6755
कला	-10.6756
▁Lanka	-10.6757
▁myself	-10.6757
கொள்ள	-10.6759
▁accepted	-10.6761
▁உலக	-10.6763
▁বিষয়টি	-10.6766
▁சம	-10.6768
▁ಏನ	-10.677
માર	-10.6772
ক্ত	-10.6772
কারী	-10.6774
▁deep	-10.6778
▁spoke	-10.6778
▁کرنے	-10.6779
ೀಯ	-10.678
▁নির্	-10.6789
ect	-10.6791
ரே	-10.6793
▁वृद्धि	-10.6794
bb	-10.6795
ev	-10.6795
▁सुन	-10.6797
▁ਸਿਹਤ	-10.6798
▁hotel	-10.6801
▁store	-10.6805
▁ਘੱਟ	-10.6805
▁ಆಗಿದೆ	-10.6809
▁असतात	-10.681
अलग	-10.681
▁ಕೇವಲ	-10.6813
▁feeling	-10.6813
द्र	-10.6817
সর	-10.6819
▁drugs	-10.6821
તર	-10.6822
des	-10.6822
▁Constitution	-10.6822
▁જવાબ	-10.6823
▁তেমন	-10.6825
▁park	-10.6825
▁स्टोरेज	-10.6825
ಂಡ್	-10.6825
▁कार्यालय	-10.6825
▁કેસ	-10.6826
▁அதிக	-10.683
ਾਇਆ	-10.6831
में	-10.6832
्यु	-10.6833
▁एयर	-10.6837
emp	-10.6837
▁கால	-10.6838
ऐ	-10.6838
▁খা	-10.6839
▁returned	-10.6842
▁reply	-10.6842
▁प्यार	-10.6843
▁உங்களுக்கு	-10.6844
வர்கள்	-10.6844
▁aware	-10.6846
ਟੇ	-10.6846
▁चरण	-10.6847
­	-10.6848
▁digital	-10.6848
▁ವಿವಿಧ	-10.6849
▁wonderful	-10.6852
ਸਟ	-10.6853
bit	-10.6854
▁surprised	-10.6859
▁शीर्ष	-10.686
▁Chairman	-10.6862
▁proud	-10.6864
ফা	-10.6866
dra	-10.6866
put	-10.6867
ned	-10.6869
▁shot	-10.6876
▁ਕੋਲ	-10.6877
▁शानदार	-10.6878
mAh	-10.688
▁થયો	-10.688
▁તેનો	-10.6881
▁माझ्या	-10.6881
cy	-10.6882
ிருந்த	-10.6883
▁সদস্য	-10.6888
ंदा	-10.6889
वास	-10.6889
▁suffered	-10.6889
▁হন	-10.689
ிக்	-10.6893
▁सर्वात	-10.6894
▁નામ	-10.6894
72	-10.6895
ற்க	-10.6896
▁करणार	-10.69
Com	-10.6902
फ्र	-10.6903
▁सूची	-10.6904
▁होणार	-10.6905
▁निर्देश	-10.6907
▁খবর	-10.6913
হু	-10.6916
વર	-10.6916
▁Office	-10.6917
▁arrived	-10.6918
ೊ	-10.6919
▁ব্যা	-10.692
▁worried	-10.6921
▁तयार	-10.6922
इन	-10.6924
ow	-10.6925
▁growing	-10.6926
▁Again	-10.6931
▁দ্বারা	-10.6931
▁Sushant	-10.6932
▁traffic	-10.6936
▁संस्था	-10.6936
লু	-10.6946
ೃ	-10.6946
▁agriculture	-10.6948
સ્ક	-10.695
▁Work	-10.6951
▁प्रशासन	-10.6951
▁बां	-10.6952
▁stress	-10.6952
ಣೆ	-10.6954
▁પડ	-10.6955
▁कोहली	-10.6963
serv	-10.6964
77	-10.6968
▁টাকা	-10.6968
▁author	-10.6968
▁ਵਧੀਆ	-10.6969
▁शादी	-10.6974
ray	-10.6975
થા	-10.6976
66	-10.6977
▁ट्रेन	-10.698
▁Four	-10.6981
▁attend	-10.6983
▁truly	-10.6983
பர	-10.6987
ಿಸಲು	-10.6987
▁cup	-10.6988
ஓ	-10.6988
▁strengthen	-10.6988
gn	-10.6989
▁average	-10.699
▁Park	-10.6992
▁गरज	-10.6993
জু	-10.6994
band	-10.6995
ಿದ್ದೇನೆ	-10.6996
पन	-10.6997
क्रम	-10.7
▁Rai	-10.7001
ಎ	-10.7001
▁দেয়	-10.7001
▁variety	-10.7002
મો	-10.7003
▁finally	-10.7003
▁अंत	-10.7006
hor	-10.701
mod	-10.7014
ण्यात	-10.7015
Ma	-10.7017
▁हल	-10.7017
frac	-10.7019
yan	-10.7019
▁Rajput	-10.7021
▁१	-10.7022
ನಿಂದ	-10.7023
تے	-10.7027
▁felt	-10.7028
62	-10.7028
▁यादव	-10.7031
▁ਪਾਣੀ	-10.7031
▁fruits	-10.7033
bs	-10.7033
▁முடியாது	-10.7035
41	-10.7036
▁সম্পর্কে	-10.7037
74	-10.7038
ॉन	-10.7038
ગી	-10.7039
पि	-10.7042
▁Public	-10.7042
",	-10.7044
▁Russian	-10.7044
▁उससे	-10.7045
▁डाल	-10.7047
ಮ್ಮ	-10.7049
ika	-10.7049
▁ਮੌਤ	-10.705
▁विधायक	-10.705
ಲೀ	-10.705
▁विश्वविद्यालय	-10.705
யூ	-10.7051
जो	-10.7053
नु	-10.7055
▁usually	-10.7056
ಲೋ	-10.7056
▁Film	-10.7056
▁decide	-10.7057
▁ખાસ	-10.706
தன்	-10.706
II	-10.7061
▁importance	-10.7063
नाथ	-10.7063
ভার	-10.7066
▁नौ	-10.7067
▁allegations	-10.7068
આ	-10.7071
▁Kejriwal	-10.7072
▁जाएंगे	-10.7072
▁flow	-10.7075
▁ઘણી	-10.7076
▁Only	-10.7077
▁denied	-10.7081
▁ಪರಿಣಾಮ	-10.7083
▁ह्या	-10.7083
▁ಜನರು	-10.7084
▁impossible	-10.7085
68	-10.7088
▁ਇੱਥੇ	-10.709
ायला	-10.7096
▁अधिनियम	-10.7096
போ	-10.7098
▁কিন্ত	-10.7098
▁ਤਿਆਰ	-10.7099
▁आदि	-10.71
ਾਉਣ	-10.7107
nath	-10.711
▁अच्छे	-10.711
57	-10.7111
▁MLA	-10.7114
▁authorities	-10.7116
-2	-10.7117
▁કરવું	-10.7118
▁Candidates	-10.7119
▁ঘটে	-10.7119
▁ہیں۔	-10.7122
▁payment	-10.7123
▁ahead	-10.7124
▁বাংলাদেশ	-10.7125
पूर	-10.7126
▁परिषद	-10.7127
▁deaths	-10.7127
▁દરમિયાન	-10.7128
▁ফলে	-10.7129
बू	-10.713
ಗಳಿವೆ	-10.7137
▁remained	-10.714
ما	-10.7141
टू	-10.7145
বী	-10.7146
▁வருகிறது	-10.7149
13	-10.7149
▁revealed	-10.7152
اب	-10.7153
ಪರಿ	-10.7155
શી	-10.7156
वाई	-10.7156
▁ডি	-10.7157
ಮೋ	-10.7157
▁opposite	-10.7158
ம்ப	-10.7159
▁turned	-10.7161
▁ಅಲ್ಲಿ	-10.7162
▁जिस	-10.7163
▁causes	-10.7164
ன்ற	-10.7166
ID	-10.7167
ಡು	-10.7171
▁प्रकरण	-10.7179
▁remove	-10.718
દાર	-10.7181
ধা	-10.7182
▁fresh	-10.7193
600	-10.7194
▁Section	-10.7196
▁விசாரணை	-10.7197
▁Bal	-10.7197
▁wide	-10.7198
▁ಶಾ	-10.7199
৭	-10.7199
▁Ku	-10.7203
▁writing	-10.7203
ಿಕೊಳ್ಳ	-10.7203
▁Hu	-10.7204
▁dangerous	-10.7204
ties	-10.7207
wear	-10.7211
গে	-10.7213
ठा	-10.7219
রূপ	-10.7222
▁आयोजन	-10.7225
▁property	-10.7226
▁सलमान	-10.7226
▁ಭಾರತದ	-10.7227
▁ಚಿಕಿತ್ಸೆ	-10.7229
▁ਹੋਈ	-10.7229
ின	-10.7231
▁બની	-10.7232
▁ਮਨ	-10.7232
৮	-10.7242
▁மன	-10.7242
▁দেখ	-10.7245
bha	-10.7247
ಷ್ಟ	-10.7249
पक	-10.7251
▁لیے	-10.7254
▁ಭಾಗ	-10.7256
ಯೋಗ	-10.7256
ક્સ	-10.7258
▁रेलवे	-10.7259
▁फरार	-10.7259
▁प्रतिक्रिया	-10.726
▁ਇਲਾਵਾ	-10.7264
ਚਾ	-10.7264
▁प्रणाली	-10.7265
▁नियम	-10.7266
▁someone	-10.7267
▁याद	-10.7269
▁Priyanka	-10.727
▁micro	-10.7271
ala	-10.7273
मीटर	-10.7275
▁Akshay	-10.7276
ith	-10.728
आइ	-10.7281
▁होऊ	-10.7282
▁भाषा	-10.7284
▁MLAs	-10.7287
▁credit	-10.7288
▁hospitals	-10.7292
▁ನಡೆದ	-10.7292
ುತ್ತಿಲ್ಲ	-10.7293
▁Agriculture	-10.7293
unt	-10.7295
लू	-10.7296
▁આવ	-10.7297
▁facing	-10.73
▁listen	-10.7301
▁গুরুত্বপূর্ণ	-10.7302
ंची	-10.7304
▁models	-10.7306
▁कुल	-10.7308
23	-10.7308
eva	-10.7309
▁ಅವರನ್ನು	-10.7313
53	-10.7316
▁ordered	-10.7318
யம்	-10.7319
▁firm	-10.7321
नों	-10.7321
▁Bhatt	-10.7322
▁scared	-10.7323
▁interested	-10.7325
ನ್ನೂ	-10.7328
ng	-10.7329
▁languages	-10.7331
▁बेटे	-10.7331
▁Sub	-10.7331
▁deployed	-10.7333
▁worse	-10.7334
uc	-10.7336
▁उनसे	-10.7336
▁শিক্ষা	-10.7338
ब्	-10.7344
▁গা	-10.7344
ಪ್ಪ	-10.7346
▁ਜਾਣਕਾਰੀ	-10.7354
▁ministers	-10.7355
ਪਿ	-10.7357
तार	-10.7359
▁نہیں	-10.7362
ચાર	-10.7365
▁goal	-10.7365
▁राहत	-10.7366
▁कॉलेज	-10.7374
▁Sal	-10.7375
▁contain	-10.7376
রী	-10.7376
▁मूल	-10.7377
▁सुंदर	-10.7378
कू	-10.7378
ண்ண	-10.7379
▁જીવન	-10.738
▁ਅਜਿਹਾ	-10.738
नं	-10.7381
inder	-10.7382
▁leadership	-10.7382
দার	-10.7383
▁पेट्रोल	-10.7383
▁continued	-10.7384
▁तेजी	-10.7386
▁distance	-10.7386
▁meaning	-10.739
▁opened	-10.739
ंद्र	-10.739
▁ਦੁਆਰਾ	-10.7392
ਯੂ	-10.7394
▁join	-10.7396
एक	-10.7401
▁मोबाइल	-10.7403
ுள்ளனர்	-10.741
બા	-10.7413
▁Science	-10.7414
▁করব	-10.7415
▁selected	-10.7416
▁definitely	-10.7416
▁concern	-10.742
▁ਜਾਰੀ	-10.7424
▁blue	-10.7424
▁बदलाव	-10.7427
▁themselves	-10.7431
▁किसान	-10.7432
▁ব্যাপারে	-10.7432
dress	-10.7432
▁Maha	-10.7433
▁approved	-10.7434
▁opposition	-10.7434
ীর	-10.7435
▁विकेट	-10.7435
fin	-10.7436
IS	-10.7438
ಅ	-10.744
▁ಕುರಿತು	-10.7441
▁भाई	-10.7442
▁મારી	-10.7443
▁previous	-10.7444
ತ್ತು	-10.7447
▁ಯೋಜನೆ	-10.7448
ाना	-10.7448
▁નવી	-10.7451
▁ਦਿੱਲੀ	-10.7452
▁spokesperson	-10.7455
tha	-10.7461
▁शकते	-10.7462
ins	-10.7464
▁प्रकाश	-10.7468
▁box	-10.7468
▁ರೋಗ	-10.7471
back	-10.7472
▁presence	-10.7474
ification	-10.7475
पणे	-10.7475
जीव	-10.7478
▁promote	-10.7479
▁--	-10.7479
av	-10.7479
▁ਕਰਕੇ	-10.748
▁हाथ	-10.7481
Fa	-10.7482
▁ਪਹੁੰਚ	-10.7482
▁नीचे	-10.7483
লী	-10.749
▁depends	-10.7491
ਬਿ	-10.7496
▁બનાવ	-10.7498
ಫ	-10.7498
▁taste	-10.7499
ನೀ	-10.7499
▁comfortable	-10.75
▁সিদ্ধান্ত	-10.7501
प्त	-10.7502
▁सीबीआई	-10.7504
▁By	-10.7507
▁teachers	-10.7507
▁communication	-10.7508
▁rear	-10.7508
▁born	-10.7509
▁budget	-10.751
▁Since	-10.751
▁fourth	-10.7513
▁note	-10.7514
▁மூலம்	-10.7514
▁banks	-10.7514
ழு	-10.7516
pic	-10.7518
set	-10.7519
▁multi	-10.7521
ತನ	-10.7521
▁ਦਿਨ	-10.7522
▁प्रस्ताव	-10.7527
▁করেছিলেন	-10.7528
চ্ছে	-10.753
▁ಇದ್ದ	-10.7533
▁डेटा	-10.7534
▁सीट	-10.7534
▁ਭਰ	-10.7535
▁பணி	-10.7535
टिक	-10.7536
▁ताकि	-10.7536
▁Earlier	-10.7538
▁मिळ	-10.7538
ಕೊಡ	-10.7543
▁ರೀತಿಯ	-10.7543
▁घेत	-10.7545
ಘ	-10.7546
اد	-10.7547
▁अहमद	-10.7549
ಂಚ	-10.7552
▁जात	-10.7552
फी	-10.7553
▁अटक	-10.7559
માન	-10.756
▁flood	-10.7561
ame	-10.7562
રૂ	-10.7566
ுள்ள	-10.7568
ਡਰ	-10.7568
ந	-10.757
▁properties	-10.7571
▁ಪ್ರಧಾನಿ	-10.7574
▁justice	-10.758
प्रा	-10.7581
▁plans	-10.7584
ोन	-10.7586
முக	-10.7588
▁Islam	-10.7589
▁لئے	-10.7589
mor	-10.7589
▁object	-10.7591
–	-10.7592
▁ಬೇರೆ	-10.7596
▁established	-10.76
▁প্রকাশ	-10.7603
▁Ru	-10.7604
ವೀ	-10.7606
flu	-10.7611
▁bowl	-10.7611
▁sons	-10.7611
ಟರ್	-10.7611
▁Rukh	-10.7612
▁female	-10.7613
71	-10.7616
▁yes	-10.7616
▁activity	-10.7617
▁rural	-10.7617
ಿದ್ದೇವೆ	-10.7626
▁बधाई	-10.7626
▁maintain	-10.7628
▁Pe	-10.7632
▁offers	-10.7635
গণ	-10.7637
▁लगी	-10.7638
CB	-10.7639
▁ಸಂಖ್ಯೆ	-10.764
58	-10.7641
▁১৯	-10.7641
ರಿಂದ	-10.7641
21	-10.7642
▁কত	-10.7642
▁भेजा	-10.7645
▁परियोजना	-10.7646
पत्र	-10.7648
▁जमा	-10.7649
▁directly	-10.7653
पेक्षा	-10.7653
▁जन्म	-10.7654
22	-10.7655
▁Ahmed	-10.7655
▁ग्रामीण	-10.7656
लैंड	-10.7657
▁voice	-10.7658
▁juice	-10.7658
▁sensor	-10.7659
நகர	-10.766
▁முக்கிய	-10.7661
▁surface	-10.7662
mission	-10.7663
धि	-10.7664
▁तरीके	-10.7665
▁proposal	-10.7665
▁देखने	-10.7666
▁অর্থ	-10.767
▁નોંધ	-10.7674
▁पोलिस	-10.7675
ਮਰ	-10.7676
▁সুন্দর	-10.7679
roll	-10.7682
बो	-10.7684
જન	-10.7684
▁anyway	-10.7684
▁click	-10.7686
vin	-10.7687
▁Nepal	-10.7687
ಿಸುವ	-10.7698
অ	-10.7702
▁Always	-10.7703
▁Indians	-10.7705
▁wishes	-10.7711
▁लिख	-10.7711
▁250	-10.7711
▁contains	-10.7711
ಕೋ	-10.7712
▁Per	-10.7713
▁मुश्किल	-10.7713
▁CCTV	-10.7714
▁ಹೇಳಿದ್ದಾರೆ	-10.7717
▁যাচ্ছে	-10.772
▁बाकी	-10.7721
ंगी	-10.7722
वृत्त	-10.7723
ਲਿ	-10.7723
1)	-10.7724
▁बेटी	-10.7726
▁offered	-10.7726
▁Bill	-10.773
▁அவை	-10.7731
▁प्रयोग	-10.7732
▁associated	-10.7733
▁धन्यवाद	-10.7733
▁announcement	-10.7735
▁बरामद	-10.7735
ರಣ	-10.7738
ल्ड	-10.7739
▁অবস্থা	-10.7739
▁soldiers	-10.7741
▁machine	-10.7745
litre	-10.7746
▁ડિ	-10.7749
▁length	-10.7749
▁ਖੇਤਰ	-10.7754
▁ಭಾರತೀಯ	-10.7755
▁देव	-10.7759
▁nobody	-10.776
59	-10.7764
78	-10.7765
▁planning	-10.7765
ular	-10.7767
▁ஆனாலும்	-10.7769
মুখ	-10.7769
01	-10.7772
▁समेत	-10.7773
▁proper	-10.7777
▁फ्ल	-10.7782
▁waiting	-10.7785
can	-10.7786
रेट	-10.7786
प्रे	-10.7787
ाल	-10.7788
▁એવું	-10.7788
ili	-10.7789
▁महीने	-10.7791
▁प्रवक्ता	-10.7791
▁throughout	-10.7791
▁चयन	-10.7791
organ	-10.7792
▁Time	-10.7792
▁হওয়া	-10.7793
wing	-10.7794
▁brand	-10.7795
▁पीछे	-10.7795
▁ಮಾತನಾಡ	-10.7796
▁समाधान	-10.7798
▁এটাই	-10.7799
▁मग	-10.78
▁લેવા	-10.7801
▁majority	-10.7802
▁ਆਈ	-10.7805
▁Comp	-10.7805
▁expensive	-10.7805
▁anymore	-10.7805
▁Ahmedabad	-10.7806
ably	-10.781
▁मुद्दे	-10.7811
jit	-10.7811
ીય	-10.7813
▁ਬੇ	-10.7814
▁તૈયાર	-10.7814
जण	-10.7815
▁33	-10.7816
▁রকম	-10.7821
mp	-10.7821
ক্তি	-10.7825
▁ತಂಡ	-10.7826
ફર	-10.7831
▁আপনাকে	-10.7831
▁वालों	-10.7832
▁ਦੇਣ	-10.7832
▁फीसदी	-10.7834
▁Tri	-10.7835
ेंद्र	-10.7836
মার	-10.7841
▁होतो	-10.7841
rate	-10.7841
▁ಅನು	-10.7843
िता	-10.7847
▁Zealand	-10.7853
▁ಅಧ್ಯಕ್ಷ	-10.7854
बरोबर	-10.7858
▁મારા	-10.7859
▁appropriate	-10.7859
▁attempt	-10.7861
▁ਆਮ	-10.7861
▁ಸ್ಥಾನ	-10.7861
▁hours	-10.7862
▁மக்கள்	-10.7864
▁fat	-10.7864
itis	-10.787
মাত্র	-10.7875
साथ	-10.7876
▁কোথায়	-10.7877
Bha	-10.7878
▁thousand	-10.7878
▁truck	-10.7879
ava	-10.7882
▁tea	-10.7883
san	-10.7883
ব্য	-10.7885
▁लि	-10.7885
▁weather	-10.7886
▁sort	-10.7887
वें	-10.7888
ಮೇ	-10.7889
▁continues	-10.7893
ੱਕ	-10.7894
જે	-10.7895
▁খান	-10.7897
ign	-10.7897
▁faith	-10.7898
▁तापमान	-10.7898
গুলির	-10.7899
▁explain	-10.7899
cul	-10.7902
▁ಸ್ಥಳ	-10.7909
िश	-10.7909
ذ	-10.791
ਸੈ	-10.791
▁Arjun	-10.7911
▁लगे	-10.7913
▁medicine	-10.7916
▁concept	-10.7916
▁Iran	-10.7921
▁ಬೆಲೆ	-10.7922
तात	-10.7922
दान	-10.7923
चार	-10.7923
▁ஒன்று	-10.7924
▁games	-10.7924
▁पालन	-10.7928
&	-10.7928
▁Dev	-10.793
stone	-10.793
હો	-10.7932
▁Rajnath	-10.7932
ುವುದ	-10.7938
▁May	-10.7938
▁ನಡೆಯ	-10.7939
வ்	-10.794
তর	-10.794
▁category	-10.7941
▁2015	-10.7941
▁ਮਦਦ	-10.7942
▁grow	-10.7943
▁waste	-10.7946
▁ದೇಶ	-10.7948
▁खिलाड़ी	-10.7948
બ્ર	-10.7949
সার	-10.7952
▁potential	-10.7952
▁increases	-10.7957
▁देखते	-10.7959
ಫಿ	-10.7959
▁memory	-10.796
▁character	-10.7961
▁hurt	-10.7962
ਿਊ	-10.7964
દુ	-10.7964
▁करेगी	-10.7966
▁5-	-10.7969
▁गिर	-10.7969
▁clo	-10.797
▁bail	-10.7971
▁હજુ	-10.7971
ग्राम	-10.7972
शक्ति	-10.7975
▁Association	-10.7975
▁मतलब	-10.7976
▁scored	-10.7977
▁केरल	-10.7977
▁Senior	-10.7978
▁Sar	-10.7979
▁पाहिजे	-10.798
▁plants	-10.7981
|	-10.7981
▁இருந்த	-10.7987
சோ	-10.7987
▁আহত	-10.7988
▁numbers	-10.7989
▁माल	-10.799
▁Come	-10.799
গান	-10.7991
▁rejected	-10.7992
▁Car	-10.7992
▁Answer	-10.7993
ڑ	-10.7995
▁शकता	-10.7995
ಕ್ಸ್	-10.7995
▁सदस्यों	-10.7999
tern	-10.8009
جی	-10.801
▁providing	-10.8011
97	-10.8013
▁victory	-10.8013
ॉल	-10.8013
▁Sp	-10.8017
▁divided	-10.8017
▁குறித்து	-10.8017
▁methods	-10.8018
▁सिनेमा	-10.8018
▁परिजनों	-10.8019
▁ঘটনায়	-10.802
▁तुलना	-10.8022
ಗೊಂಡ	-10.8024
काळ	-10.8024
▁ट्विटर	-10.8024
▁আজ	-10.8027
▁होईल	-10.8029
਼	-10.8029
▁bright	-10.8029
{	-10.8031
ਢ	-10.8034
ess	-10.804
▁রাখ	-10.8043
▁પ્રક્રિયા	-10.8043
▁internet	-10.8044
ற்று	-10.8044
▁ಮಾಡುವ	-10.8044
▁இவை	-10.8045
▁ವಿಶೇಷ	-10.8046
▁આગળ	-10.8047
▁समारोह	-10.8047
▁vote	-10.8047
▁અર્થ	-10.8049
ாள	-10.8049
▁হলে	-10.8051
▁advice	-10.8053
ify	-10.8055
ਚਾਰ	-10.8056
लर	-10.8057
▁animals	-10.8058
ಳೆ	-10.8058
▁enter	-10.806
off	-10.806
▁હાલ	-10.8061
ूर	-10.8063
▁இங்கே	-10.8065
▁connected	-10.8068
▁प्रो	-10.8068
▁করেছি	-10.8069
पू	-10.807
৯	-10.807
▁Railway	-10.8073
▁charges	-10.8073
gram	-10.8076
ump	-10.8077
76	-10.8078
▁player	-10.808
▁earth	-10.8081
90	-10.8082
▁nearby	-10.8082
▁Rajya	-10.8085
সব	-10.8085
मुळे	-10.8086
bul	-10.8088
ಹೋ	-10.8089
▁ಅಂಶ	-10.8091
▁બા	-10.8092
कडून	-10.8093
▁लॉन्च	-10.8095
▁original	-10.8098
▁pan	-10.8099
▁ধরে	-10.81
ிடம்	-10.81
west	-10.81
▁डिग्री	-10.8101
▁त्याची	-10.8101
▁wave	-10.8102
▁ফিরে	-10.8102
ಗಾರ	-10.8112
லே	-10.8113
▁assistance	-10.8114
▁કરતા	-10.8116
▁સારવાર	-10.8116
▁lack	-10.8116
▁प्रमाण	-10.8117
▁মাধ্যমে	-10.8117
▁ceremony	-10.8118
खंड	-10.8118
▁ধরনের	-10.8119
▁কারণে	-10.8121
▁આવું	-10.8126
▁forest	-10.8127
▁मिलेगा	-10.8129
ரூ	-10.8129
▁આવ્યું	-10.813
▁उपाय	-10.8131
▁छह	-10.8132
▁இதற்கு	-10.8133
ஒ	-10.8134
▁தகவல்	-10.8137
▁suffering	-10.8139
कु	-10.8139
▁शकतो	-10.8141
सो	-10.8142
वर्	-10.8144
▁Banerjee	-10.8144
▁Mal	-10.8147
ிருக்க	-10.8149
63	-10.8151
▁Ur	-10.8151
ंच्या	-10.8155
▁talks	-10.8157
ીને	-10.8157
spect	-10.8159
▁हजार	-10.8161
▁જેમ	-10.8162
▁rid	-10.8162
▁ಸಿನಿಮಾ	-10.8163
▁সকল	-10.8163
▁இன்	-10.8166
▁Nath	-10.8169
▁உணவு	-10.817
▁materials	-10.8172
▁trouble	-10.8172
▁Take	-10.8172
air	-10.8174
ವಿದೆ	-10.8177
▁निदेशक	-10.8178
▁घायलों	-10.8179
▁दिख	-10.8181
▁नीति	-10.8183
▁તમારે	-10.8185
▁independent	-10.8185
▁ਇੰ	-10.8186
ook	-10.8186
ments	-10.8188
room	-10.8189
ਛ	-10.8192
▁Krishna	-10.8193
▁Information	-10.8195
ेगा	-10.8197
ists	-10.8199
▁अद्याप	-10.8202
▁ago	-10.8212
▁Sonia	-10.8216
▁terrorists	-10.8218
▁photograph	-10.8218
▁exception	-10.8219
▁दूसरा	-10.8225
▁ಬಯಸ	-10.8233
▁operations	-10.8235
▁shown	-10.824
▁નહિ	-10.824
92	-10.8242
▁coach	-10.8243
▁elements	-10.8245
▁ਉਪ	-10.8245
▁থাকবে	-10.8246
ினார்	-10.8247
▁કોંગ્રેસ	-10.8252
pot	-10.8255
▁থাকতে	-10.826
ত্ত	-10.826
ণ্ড	-10.8265
▁எல்லா	-10.8265
▁documents	-10.8265
▁Pakistani	-10.8266
▁ওর	-10.8267
ক্ষণ	-10.8267
ڈی	-10.8269
এন	-10.8269
चर	-10.8271
▁expect	-10.8272
ழ்	-10.8274
▁pandemic	-10.8274
▁সালে	-10.8277
▁पढ़	-10.8279
▁मेडिकल	-10.8281
▁Dis	-10.8281
▁ਉੱਤੇ	-10.8281
પુ	-10.8283
▁ಬಳಿಕ	-10.8284
த்திர	-10.8284
ಸೇ	-10.8285
▁ಪಡೆದ	-10.8285
▁મોત	-10.8286
ುತ್ತಿದ್ದ	-10.8287
▁खो	-10.8288
86	-10.8289
▁जग	-10.8289
கிறது	-10.829
▁पड़ा	-10.8295
ಚ್ಚ	-10.8295
hy	-10.8296
दु	-10.8299
▁ਜਦੋਂ	-10.83
▁Over	-10.8303
▁दिले	-10.8307
ಾದರೂ	-10.831
ார்கள்	-10.831
शील	-10.8312
ಬಲ	-10.8313
▁আল	-10.8315
▁36	-10.8316
▁પણુ	-10.8321
▁ಸಿಂಗ್	-10.8325
▁Congratulations	-10.8325
ियो	-10.8326
94	-10.8326
▁Law	-10.8329
▁running	-10.8329
AT	-10.833
CO	-10.8331
▁আলোচনা	-10.8335
▁ছাড়া	-10.8335
▁तस्वीर	-10.8335
▁celebrated	-10.8337
ગે	-10.8337
▁levels	-10.8338
▁effort	-10.8341
▁बनी	-10.8342
▁পরিবর্তন	-10.8342
▁Have	-10.8342
▁refused	-10.8343
ਰੂ	-10.8345
▁gain	-10.8348
▁begins	-10.8351
▁देर	-10.8352
84	-10.8357
▁ಮಕ್ಕಳ	-10.8358
▁ਵਿਕਾਸ	-10.8362
ਉ	-10.8363
ுமா	-10.8366
▁நிலை	-10.8368
▁systems	-10.8369
ators	-10.8369
800	-10.8369
▁முன்	-10.837
ਦਾਰ	-10.8371
▁தொடர்ந்து	-10.8373
▁ટીમ	-10.8373
টার	-10.8374
இ	-10.8375
aya	-10.8377
69	-10.8377
▁sin	-10.8383
দ্র	-10.8384
ுவ	-10.8386
ard	-10.8386
late	-10.8386
▁customers	-10.8388
▁reaction	-10.8391
পূর্ব	-10.8391
▁Ke	-10.8391
گا	-10.8393
▁जरिए	-10.8394
▁হিসাবে	-10.8397
61	-10.8397
ery	-10.8401
धान	-10.8402
▁occur	-10.8403
▁திரு	-10.8403
▁user	-10.8405
▁oxygen	-10.8407
▁multiple	-10.8409
▁ਅੰ	-10.8409
bl	-10.8411
ಲಾಯಿತು	-10.8412
▁ಮೂಲ	-10.8414
▁માહિતી	-10.8415
▁polls	-10.8416
▁See	-10.8418
▁रेल	-10.8419
▁artist	-10.842
▁બાળક	-10.842
५	-10.842
pla	-10.8423
▁কয়েক	-10.8425
▁राह	-10.8427
भव	-10.843
▁conduct	-10.843
▁பார்க்க	-10.8432
Thank	-10.8435
▁বাবা	-10.8435
▁agency	-10.8437
ಂಟ್	-10.8439
▁સમાવેશ	-10.8439
▁મોટા	-10.8441
▁ಸ್ವಲ್ಪ	-10.8443
தில்லை	-10.8444
লের	-10.8445
▁secret	-10.8446
▁battery	-10.8449
ாத	-10.845
આર	-10.845
endra	-10.845
▁समावेश	-10.8451
▁shows	-10.8452
▁भू	-10.8453
▁relief	-10.8453
ಎನ್	-10.8463
ging	-10.8464
ological	-10.8465
pu	-10.8467
▁constituency	-10.8467
▁wouldn	-10.8467
जू	-10.8467
▁pregnancy	-10.8467
त्य	-10.8469
▁पकड़	-10.8474
▁কীভাবে	-10.8476
श्र	-10.8477
▁देण्यात	-10.8477
एसटी	-10.8482
▁উপস্থিত	-10.8483
▁clothes	-10.8484
िक्स	-10.8486
gri	-10.8487
▁પોતાના	-10.8489
▁Foreign	-10.8489
▁கொண்டு	-10.8489
লার	-10.8492
▁ತೆಗೆದುಕೊಳ್ಳ	-10.8497
ox	-10.8499
ুন	-10.8503
▁agreement	-10.8504
સિંહ	-10.8507
▁কখনও	-10.8511
▁ઉમેરો	-10.8512
▁মেয়ে	-10.8517
▁सामग्री	-10.8518
સૂ	-10.8519
▁हिंदी	-10.8522
களையும்	-10.8523
▁mode	-10.8524
▁120	-10.8525
ef	-10.8529
ini	-10.853
ಂಕ	-10.8533
gh	-10.8536
kh	-10.8536
ول	-10.8537
▁ancient	-10.8537
▁Hence	-10.8539
▁mark	-10.8541
▁येत	-10.8545
▁દિલ્હી	-10.8546
প্	-10.855
▁स्टेशन	-10.8551
▁break	-10.8553
▁sitting	-10.8554
▁अंक	-10.8555
াব	-10.8557
gate	-10.8558
▁begun	-10.8559
▁investigated	-10.856
▁ਪ੍ਰਾਪਤ	-10.856
▁जैसा	-10.8561
▁tourists	-10.8561
▁height	-10.8562
▁Cr	-10.8564
ಮುಖ	-10.8571
ick	-10.8571
▁solve	-10.8573
ین	-10.8579
▁influence	-10.858
ಲಾಗ	-10.8581
▁Due	-10.8585
▁ગયો	-10.8586
deep	-10.8588
mat	-10.859
▁Japan	-10.8591
பின்	-10.8592
▁civil	-10.8594
▁ಮಂದಿ	-10.8597
স্থান	-10.8598
रिक	-10.8599
▁leaves	-10.86
ழை	-10.86
▁ಅವಕಾಶ	-10.8602
ஸ	-10.8603
▁காண	-10.8603
▁ভারতীয়	-10.8604
dies	-10.8604
ಿಗೂ	-10.8605
▁recorded	-10.8608
▁bathroom	-10.8609
▁छोटे	-10.8612
▁રહેશે	-10.8612
▁happiness	-10.8612
▁दिल	-10.8613
▁winter	-10.8613
▁detained	-10.8614
ುತ್ತಿದ್ದಾರೆ	-10.8615
standing	-10.8617
invest	-10.8618
▁France	-10.8618
vis	-10.8621
▁કર્યા	-10.8624
law	-10.8624
▁ਪਰਿਵਾਰ	-10.8627
▁ಕೈ	-10.8628
bra	-10.8629
▁सफल	-10.8629
▁ক্যা	-10.8629
ture	-10.8632
▁onions	-10.8632
▁certificate	-10.8634
দ্	-10.8635
AN	-10.8637
▁কু	-10.8638
▁Prasad	-10.864
▁email	-10.864
dia	-10.8641
▁निकाल	-10.8641
▁bill	-10.8642
▁ಬಾರಿ	-10.8642
▁ਜਾਵੇਗਾ	-10.8645
ুল	-10.8647
लेले	-10.8647
ত্	-10.8651
দু	-10.8652
▁دو	-10.8653
▁નવા	-10.8653
▁મોદી	-10.8654
shed	-10.8654
▁પહેલા	-10.8654
▁वायरल	-10.8654
char	-10.8655
▁ਹੋਵੇਗਾ	-10.8657
▁वक्त	-10.8657
Th	-10.8658
ping	-10.8659
▁தலை	-10.8661
जीत	-10.8661
ਕਾਂ	-10.8664
cra	-10.8665
ਾਸ	-10.8665
▁ஏன்	-10.8666
▁fully	-10.8668
ફો	-10.8668
ுக்	-10.8668
ುವಂತೆ	-10.8669
▁असम	-10.8673
▁ਪਤਾ	-10.8673
ಪೋ	-10.8679
▁સ્થિતિ	-10.868
▁کہا	-10.8682
▁অন্যান্য	-10.8684
lor	-10.8687
73	-10.8688
▁Muslims	-10.8689
board	-10.869
▁Odisha	-10.8691
▁Pri	-10.8692
▁equation	-10.8692
▁Award	-10.8694
▁democracy	-10.8694
▁கூட	-10.8695
▁Super	-10.8697
▁તેમજ	-10.87
▁ਲੱਗ	-10.87
▁अगले	-10.8702
▁રહ્યું	-10.8702
▁remaining	-10.8702
▁Around	-10.8703
cho	-10.8704
▁नाव	-10.8705
▁Art	-10.8706
▁जुड़े	-10.8706
ov	-10.8711
ਵਾਰ	-10.8714
net	-10.8717
ઢ	-10.8719
▁இவர்	-10.8721
▁इतना	-10.8722
ುತ್ತಿರುವ	-10.8722
▁যখন	-10.8723
▁route	-10.8724
▁Class	-10.8724
न्यू	-10.8725
সের	-10.8726
▁Internet	-10.8727
ek	-10.8728
▁विवाद	-10.8729
ਤਿ	-10.873
▁இயக்க	-10.8731
நேர	-10.8731
▁பகுதி	-10.8732
▁रहते	-10.8736
▁सुप्रीम	-10.8737
பொ	-10.8737
▁sections	-10.8738
▁মৃত্যু	-10.8739
જો	-10.8744
▁संजय	-10.8745
ಮೊ	-10.8748
पुढे	-10.8749
▁posted	-10.8752
▁बु	-10.8753
ਜੇ	-10.8754
मंत्री	-10.8754
▁Rao	-10.8755
▁হওয়ার	-10.8756
▁तय	-10.8758
বাড়ি	-10.8759
place	-10.876
ੀਆ	-10.8761
▁সর্ব	-10.8762
▁உருவாக்க	-10.8763
dev	-10.8763
અપ	-10.8763
▁लॉ	-10.8764
▁लक्ष्य	-10.8766
▁ਕੈ	-10.8767
▁सौंप	-10.8767
पत	-10.8772
""."	-10.8773
क़	-10.8773
over	-10.8776
▁dispute	-10.8776
▁இதன்	-10.8776
▁Railways	-10.8777
लै	-10.8778
फ्	-10.8779
▁દૂર	-10.8783
शिक	-10.8786
▁पदार्थ	-10.8789
▁sister	-10.8789
एड	-10.879
▁साझा	-10.879
▁મેં	-10.8791
▁elected	-10.8793
83	-10.8795
lip	-10.8797
▁provides	-10.8799
ੜਾ	-10.8799
▁ತಿಳಿಸಿದ್ದಾರೆ	-10.8799
हरा	-10.88
நாடு	-10.88
▁minimum	-10.88
▁effects	-10.8802
▁लौट	-10.8807
ಬೇಕ	-10.8807
ரின்	-10.8808
▁आपका	-10.881
▁contribution	-10.881
▁प्रौद्योगिकी	-10.8811
▁status	-10.8812
▁En	-10.8812
▁occurred	-10.8813
▁দুটি	-10.8813
ுள்ளார்	-10.8814
با	-10.8818
▁equipment	-10.8818
▁foods	-10.8819
▁इलाके	-10.882
▁रख	-10.8821
▁Even	-10.8826
ঞ্চ	-10.8826
▁Farmers	-10.8832
▁இதனால்	-10.8837
▁निकल	-10.8837
▁महसूस	-10.8838
▁ਘਰ	-10.8838
दरम्यान	-10.8838
87	-10.8839
▁ਵਿਅਕਤੀ	-10.8841
▁પ્રતિ	-10.8842
▁ಪಾತ್ರ	-10.8843
▁મળશે	-10.8843
AR	-10.8844
▁Everything	-10.885
▁जखमी	-10.8852
▁ನಮಗೆ	-10.8854
▁medal	-10.8854
▁संसद	-10.8855
▁विविध	-10.8856
▁spend	-10.8859
▁ಪ್ರದೇಶ	-10.8859
MA	-10.886
▁રંગ	-10.886
inch	-10.8862
कारी	-10.8863
ಪಟ್ಟ	-10.8864
▁ஹ	-10.8866
▁crores	-10.8868
▁याचा	-10.8869
টো	-10.8872
▁तैनात	-10.8873
▁reading	-10.8875
ষ্	-10.8879
▁ಒಬ್ಬ	-10.8881
▁ਪ੍ਰਤੀ	-10.8881
▁उद्देश्य	-10.8882
▁வாழ்க்கை	-10.8882
struct	-10.8888
▁boil	-10.8888
क्षण	-10.889
ಿಕೊಂಡ	-10.889
▁defence	-10.8891
▁Bengaluru	-10.8894
▁चोट	-10.8897
ನ್ಸ್	-10.8897
▁કેમ	-10.8899
ವ್ಯ	-10.8902
க்கப்பட்ட	-10.8902
▁જાણ	-10.8903
89	-10.8905
▁Ran	-10.8909
▁Article	-10.8911
▁ਮੈ	-10.8911
▁ਨਹੀ	-10.8911
▁whatever	-10.8912
▁degrees	-10.8913
▁નીચે	-10.8913
ਜਨ	-10.8915
ass	-10.8916
▁હોઈ	-10.8918
ाया	-10.8919
ಕೇ	-10.8921
ंडा	-10.8923
ient	-10.8924
ುತ್ತ	-10.8924
ண்டு	-10.8927
▁दुर्घटना	-10.8931
rn	-10.8933
▁longer	-10.8933
આઈ	-10.8933
▁sense	-10.8936
uri	-10.8936
▁Business	-10.894
▁tournament	-10.894
মো	-10.894
▁download	-10.8941
ख़	-10.8941
बंध	-10.8941
▁કહ્યું	-10.8947
▁mental	-10.8949
▁निधन	-10.8951
રમ	-10.8953
▁ನೀರು	-10.8954
ates	-10.8954
uk	-10.8955
▁उठा	-10.8955
▁ವಿಧಾನ	-10.8956
▁এখনো	-10.8956
▁appear	-10.8958
▁generation	-10.8959
▁ধন্যবাদ	-10.896
▁پی	-10.8961
ਿੱ	-10.8961
स्म	-10.8962
ચી	-10.8963
▁Je	-10.8964
star	-10.8964
▁வைத்த	-10.8965
▁हवा	-10.8966
ூ	-10.897
রকম	-10.8971
ਗਰ	-10.8973
▁double	-10.8973
hel	-10.8974
▁London	-10.8975
▁வெற்றி	-10.8975
▁ইহা	-10.8982
▁base	-10.899
ष्	-10.899
▁shifted	-10.8991
િન	-10.8993
MC	-10.8995
▁சரி	-10.8995
DC	-10.8996
મંત્રી	-10.8996
▁ઉદાહરણ	-10.8999
િટ	-10.9
ock	-10.9001
سی	-10.9001
79	-10.9003
▁पटेल	-10.9003
▁ಕಷ್ಟ	-10.9006
▁म्हणाले	-10.9006
▁সত্যিই	-10.9007
IP	-10.9009
▁जर	-10.9009
▁ઉપર	-10.9014
ಹಾಕ	-10.9017
▁ছোট	-10.9017
ેલ	-10.9017
▁Ab	-10.9018
ाइज	-10.9023
▁प्रशिक्षण	-10.9027
தூ	-10.9028
রাষ্ট্র	-10.9028
▁Ajay	-10.9029
▁tradition	-10.9033
▁ਬਣਾਉਣ	-10.9033
કુ	-10.9034
▁fell	-10.9035
ರೂಪ	-10.9035
▁हालत	-10.9036
▁recommended	-10.9038
▁બહુ	-10.9039
ita	-10.9039
▁পথ	-10.9042
▁ಮೊದಲು	-10.9043
ೊಂದು	-10.9048
▁અસર	-10.9049
▁boy	-10.905
▁मात्रा	-10.905
▁ટકા	-10.9055
▁महत्व	-10.9056
▁rains	-10.9057
पोर्ट	-10.906
▁कब्जे	-10.9061
வரி	-10.9062
رہ	-10.9062
िय	-10.9062
تھ	-10.9063
রের	-10.9063
▁window	-10.9065
▁ਸਾਲ	-10.9065
▁build	-10.9067
BJP	-10.9069
ફા	-10.907
▁ਪੂਰੀ	-10.907
▁visited	-10.9072
▁સુંદર	-10.9077
பூ	-10.9079
▁তাহার	-10.9079
▁सका	-10.9081
▁version	-10.9082
▁जनरल	-10.9084
ೊಬ್ಬ	-10.9085
ਐੱਸ	-10.9087
நிலை	-10.9088
chemical	-10.9088
▁angry	-10.9088
▁ವ್ಯವಸ್ಥೆ	-10.9089
▁items	-10.9089
ધા	-10.909
▁लगाने	-10.909
▁मित्र	-10.9091
▁સહ	-10.9091
CC	-10.9092
▁વર્ષ	-10.9093
▁सलाह	-10.9095
ೆಲ್ಲ	-10.9096
▁damaged	-10.9096
▁மத்திய	-10.9097
garh	-10.9098
▁traditional	-10.9101
▁suitable	-10.9102
▁Pal	-10.9104
▁योगदान	-10.9105
▁ನಿರ್	-10.9105
▁Ph	-10.9106
▁জাতীয়	-10.911
ತ್ವ	-10.9111
▁treat	-10.9112
▁appeared	-10.9114
▁பிரதமர்	-10.9114
ರೈ	-10.9115
▁employment	-10.9116
▁costs	-10.9119
▁express	-10.9121
pin	-10.9122
रम	-10.9127
ea	-10.9131
▁organised	-10.9131
भूमि	-10.9132
ச்சு	-10.9134
ரம்	-10.9135
ધો	-10.9136
ಲೂ	-10.9137
बीसी	-10.9137
▁voltage	-10.9137
▁स्थापित	-10.9139
▁programmes	-10.9139
▁গ্রহণ	-10.914
اہ	-10.9142
कश्मीर	-10.9143
▁Nothing	-10.9144
isation	-10.9144
द्या	-10.9146
eg	-10.9146
▁मिले	-10.9147
▁claim	-10.9147
▁বলি	-10.9147
charge	-10.9151
▁তিন	-10.9152
▁সবচেয়ে	-10.9154
कट	-10.9155
▁Pune	-10.9155
▁આવા	-10.9155
મન	-10.9157
▁changing	-10.916
▁वायरस	-10.9161
हो	-10.9164
rd	-10.9165
ಯಾದ	-10.9165
▁ಯಾರ	-10.9166
सिंग	-10.9167
▁આમ	-10.9168
▁feet	-10.9171
▁unknown	-10.9172
▁முயற்சி	-10.9173
▁prepare	-10.9175
াস	-10.9175
▁shape	-10.9177
wo	-10.9178
ತೀ	-10.9181
win	-10.9181
▁શક્ય	-10.9181
▁কঠিন	-10.9184
▁सारे	-10.9184
ಮಟ್ಟ	-10.919
ಹು	-10.9191
Ju	-10.9193
▁served	-10.9194
26	-10.9195
Z	-10.9195
घे	-10.9195
ੈਕ	-10.92
▁याबाबत	-10.92
rain	-10.92
▁ਉਹਨਾਂ	-10.9203
▁रिलीज	-10.9204
▁agreed	-10.9205
ವಿಲ್ಲ	-10.9205
▁जाऊ	-10.9206
રણ	-10.9207
कॉम	-10.9212
▁Apply	-10.9215
▁trains	-10.9216
let	-10.922
▁Control	-10.9221
▁अहम	-10.9222
▁क्लिक	-10.9222
बद्दल	-10.9223
लिया	-10.9224
▁severe	-10.9228
▁பெண்	-10.9231
▁votes	-10.9233
▁দেন	-10.9234
▁शकत	-10.9234
py	-10.9236
▁ऊपर	-10.9236
एँ	-10.9237
▁plea	-10.9238
▁गोष्ट	-10.9241
▁mountain	-10.9243
▁ಪರಿಸ್ಥಿತಿ	-10.9244
▁ಲಕ್ಷ	-10.9245
▁बॉ	-10.9245
ிற்கு	-10.9253
▁Europe	-10.9253
▁appeal	-10.9254
▁die	-10.9254
▁प्रबंधन	-10.9256
▁रैम	-10.9257
०	-10.9258
▁send	-10.9261
▁নিশ্চিত	-10.9264
গ্র	-10.9265
▁आरोग्य	-10.9265
▁विराट	-10.9265
्व	-10.9265
ோர்	-10.9266
▁ಕಾರ್ಯಕ್ರಮ	-10.9267
▁ઓફ	-10.9268
kin	-10.9269
▁criminal	-10.9273
▁उनमें	-10.9274
▁Telangana	-10.9274
under	-10.9275
▁protection	-10.9281
▁साफ	-10.9281
டெ	-10.9283
▁ਹਸਪਤਾਲ	-10.9284
ಕೊಳ್ಳ	-10.9284
▁submitted	-10.9284
ધી	-10.9284
्म	-10.9285
▁ಸುಲಭ	-10.9285
▁wash	-10.9286
ल्ट	-10.9289
gg	-10.9292
ons	-10.9293
▁माता	-10.9293
▁threat	-10.9296
▁आणखी	-10.9296
ोल	-10.9299
ஆம்	-10.9303
ঈ	-10.9304
▁ਵਧ	-10.9305
▁किलोमीटर	-10.9306
ਸ਼ੀ	-10.9307
▁actors	-10.9308
▁dance	-10.9308
ਡਿ	-10.9309
▁राशि	-10.9309
Q	-10.931
ਦੁ	-10.9313
களாக	-10.9313
▁सम्मान	-10.9316
▁whose	-10.9319
रियर	-10.932
▁export	-10.9324
▁drop	-10.9325
▁testing	-10.9327
med	-10.9331
▁जिन	-10.9331
▁ministry	-10.9331
▁display	-10.9333
▁undergoing	-10.9334
▁इंडियन	-10.9338
ாளர்	-10.9339
▁latest	-10.9339
ઃ	-10.934
▁હે	-10.934
थो	-10.9341
ಸೈ	-10.9341
বন	-10.9347
્ર	-10.9347
▁எல்லாம்	-10.935
▁objective	-10.935
▁ಹಣ	-10.9352
▁moved	-10.9352
bor	-10.9355
▁फैसले	-10.9355
ப்பட்டு	-10.9358
▁लिमिटेड	-10.9359
भि	-10.9359
▁शुल्क	-10.9361
▁भुगतान	-10.9361
▁ಏಕೆಂದರೆ	-10.9362
▁પરિવાર	-10.9364
▁Republic	-10.9364
press	-10.9364
▁அணி	-10.9364
શન	-10.9366
ಷ್ಟು	-10.9367
▁दिखा	-10.9369
▁गुण	-10.937
▁पैदा	-10.9371
▁track	-10.9372
▁ಸರಿ	-10.9374
▁speech	-10.9375
विल	-10.9377
▁ಕಾಣ	-10.9378
▁समुदाय	-10.9379
ோடு	-10.938
▁परिवर्तन	-10.9382
▁kg	-10.9384
▁block	-10.9387
▁શહેર	-10.9389
▁आहोत	-10.939
मौ	-10.939
▁બિ	-10.9391
▁domestic	-10.9393
▁எதிர்	-10.9393
शु	-10.9395
▁producer	-10.9396
▁ਤਿੰਨ	-10.9399
અ	-10.9399
gov	-10.94
▁गांव	-10.9401
▁ਕਾਂਗਰਸ	-10.9402
jo	-10.9402
▁पूछताछ	-10.9402
▁ਬੱਚੇ	-10.9403
▁अवधि	-10.9403
hen	-10.9405
▁Ban	-10.9407
▁Im	-10.9408
▁April	-10.941
▁रात	-10.9411
্যু	-10.9411
▁sweet	-10.9412
சீ	-10.9413
▁represent	-10.9414
▁ਕੇਸ	-10.9417
▁villages	-10.9418
▁street	-10.9418
▁ವ್ಯಕ್ತಿ	-10.942
dicate	-10.9422
vari	-10.9424
ாமல்	-10.9425
▁চলছে	-10.9426
▁Dhoni	-10.9428
ੱਤ	-10.9429
கர	-10.943
ked	-10.943
▁திட்ட	-10.9432
▁Application	-10.9433
தற்கு	-10.9434
যা	-10.9435
▁सत्य	-10.9436
▁কখনো	-10.9437
▁Amitabh	-10.9441
▁डॉलर	-10.9442
▁शब्द	-10.9443
▁ওপর	-10.9444
ற்ப	-10.9445
@	-10.9446
▁रोहित	-10.9447
▁व्यवसाय	-10.9447
▁दिखाई	-10.9448
ंनी	-10.9448
▁தற்போது	-10.9448
▁संस्थान	-10.9451
▁न्याय	-10.9451
▁मुकदमा	-10.9456
lab	-10.9458
▁स्टार	-10.946
▁ಸಲ್ಲಿಸ	-10.9461
NA	-10.9462
নু	-10.9463
▁participate	-10.9464
▁परीक्षण	-10.9464
வன்	-10.9464
▁किये	-10.9467
▁ಸುಮಾರು	-10.9469
▁দেখি	-10.947
▁Food	-10.9471
▁removed	-10.9472
ಣಿ	-10.9474
▁நடவடிக்கை	-10.9474
mic	-10.9476
▁values	-10.948
▁fashion	-10.948
▁लोकप्रिय	-10.948
▁extra	-10.9482
ுடன்	-10.9482
▁Arvind	-10.9482
og	-10.9482
▁Chopra	-10.9485
▁regular	-10.9485
ದರ	-10.9486
▁बढ़ाने	-10.9487
▁studies	-10.9489
ಮೀ	-10.949
▁अध्ययन	-10.9491
af	-10.9491
—	-10.9494
غ	-10.9495
ણે	-10.9495
निया	-10.9498
ಬೀ	-10.9499
த்தான்	-10.9499
ks	-10.9499
▁collection	-10.9499
▁duty	-10.9501
05	-10.9501
▁मना	-10.9505
▁জানান	-10.9514
▁City	-10.9515
▁ਸਾਨੂੰ	-10.9517
▁Israel	-10.9518
ராக	-10.9519
▁पाणी	-10.9519
▁trial	-10.9523
▁Black	-10.9527
▁फक्त	-10.9528
ged	-10.9529
ட்டை	-10.953
▁सीरीज	-10.9535
▁கூட்ட	-10.9536
▁अंतरराष्ट्रीय	-10.9536
ral	-10.9538
▁Du	-10.9538
▁sexual	-10.9539
▁aim	-10.954
▁college	-10.954
run	-10.9542
▁writer	-10.9542
▁पैसे	-10.9544
▁seem	-10.9546
▁सत्र	-10.9546
▁League	-10.9547
▁stir	-10.9549
▁purchase	-10.9553
▁select	-10.9555
▁મોટી	-10.9556
▁بی	-10.9556
▁ਤੁਹਾਡੇ	-10.9556
▁Services	-10.9558
Why	-10.956
▁મળે	-10.9561
▁ਮੋਦੀ	-10.9562
cer	-10.9562
चित	-10.9563
▁जिसका	-10.9565
hir	-10.9566
ಕೊಂಡ	-10.9567
999	-10.9567
▁করিতে	-10.9572
▁ਸਿਰਫ	-10.9574
▁ਵਿਸ਼ਵ	-10.9576
▁army	-10.9577
கோ	-10.9578
من	-10.9579
িতে	-10.9579
▁વિશ્વ	-10.9581
সহ	-10.9581
▁European	-10.9585
▁command	-10.9586
▁रक्त	-10.9588
▁370	-10.9588
▁उत्पाद	-10.959
▁signed	-10.959
▁sun	-10.9591
▁factors	-10.9592
ಲಾಗುವುದು	-10.9592
▁प्रथम	-10.9593
ಟ್ಟು	-10.9594
▁soil	-10.9594
▁சட்ட	-10.9594
lock	-10.9597
▁Children	-10.96
▁auto	-10.96
छा	-10.9603
ंध	-10.9603
▁decisions	-10.9604
▁संपूर्ण	-10.9604
▁মত	-10.9608
▁square	-10.9609
ko	-10.9609
▁Apple	-10.9612
▁હંમેશા	-10.9612
▁ಹಲವಾರು	-10.9612
▁निवड	-10.9613
ಪುರ	-10.9614
ಲ್ಲೂ	-10.9614
ಟೀ	-10.9615
फॉर्म	-10.9616
angle	-10.9616
ತ್ರಿ	-10.9617
▁soft	-10.9617
82	-10.9619
▁confidence	-10.9621
સિ	-10.9622
▁ছেলে	-10.9624
کھ	-10.9626
,500	-10.9626
▁আস	-10.9627
▁अं	-10.9627
▁follows	-10.9628
▁करतो	-10.9631
ઓને	-10.9632
ત્	-10.9635
AS	-10.9637
▁যদিও	-10.9638
▁ساتھ	-10.9641
আপ	-10.9642
ੜੀ	-10.9648
▁ਰੂਪ	-10.9648
▁सांगितले	-10.9649
▁मृत	-10.9649
भारत	-10.9651
▁dark	-10.9651
▁কলেজ	-10.9652
জ্ঞা	-10.9652
▁फ्रंट	-10.9653
سر	-10.9655
வாக	-10.9655
▁exist	-10.9655
▁তাঁকে	-10.9655
▁Service	-10.9658
▁ਜ਼ਿਆਦਾ	-10.9659
had	-10.9659
রণ	-10.966
शिवाय	-10.966
▁ಸಮಯದಲ್ಲಿ	-10.9664
▁forms	-10.9664
−	-10.9665
ಧಿ	-10.9668
▁ஒவ்வொரு	-10.9669
್ಯಾ	-10.9669
▁ಪ್ರಮಾಣ	-10.967
ue	-10.9673
▁disc	-10.9673
▁संगीत	-10.9675
▁पुस्तक	-10.9676
▁Click	-10.9676
▁initiated	-10.9676
▁contract	-10.9677
▁text	-10.9681
error	-10.9682
வான	-10.9682
▁राजनीति	-10.9683
▁jobs	-10.9684
▁मॉडल	-10.9685
▁Deepika	-10.9685
আর	-10.9686
▁BCCI	-10.9687
bri	-10.9688
যুক্ত	-10.969
06	-10.969
▁করছেন	-10.9691
▁Just	-10.9695
ತ್ಯ	-10.9695
▁নেওয়া	-10.9696
▁மீது	-10.9701
ફી	-10.9705
▁whom	-10.9705
▁becoming	-10.9706
ಬಾ	-10.9707
▁alert	-10.9707
नुसार	-10.9708
▁नव	-10.9709
▁ઉપરાંત	-10.971
▁Lal	-10.9711
சூ	-10.9713
▁alliance	-10.9715
ज़ा	-10.9716
abad	-10.9717
ਡੇ	-10.9723
▁સમયે	-10.9726
ઝા	-10.9727
▁કોઈપણ	-10.9728
▁ಪ್ರಕಾರ	-10.9728
▁मौसम	-10.9729
▁चिकित्सा	-10.9729
वेद	-10.973
oo	-10.973
वली	-10.9734
point	-10.9735
▁બીજા	-10.9736
▁પડશે	-10.9738
▁युवा	-10.9741
▁fair	-10.9741
▁हमारा	-10.9742
णाऱ्या	-10.9744
ಬೇಕಾದ	-10.9744
▁ಹಾಗೆ	-10.9746
▁துறை	-10.9746
ুর	-10.9746
ருக்கு	-10.9747
▁पुष्टि	-10.9747
▁ಸ್ವ	-10.9749
▁GST	-10.9751
▁John	-10.9752
▁আনন্দ	-10.9752
▁serve	-10.9753
▁தீ	-10.9754
▁अत्यंत	-10.9757
நோ	-10.976
▁विस्तार	-10.976
ધાર	-10.9762
મર	-10.9766
▁ਸ਼੍ਰੀ	-10.9766
ੜੇ	-10.9768
▁debate	-10.9769
▁নির্বাচন	-10.977
वल	-10.9771
▁manner	-10.9772
کی	-10.9772
▁ongoing	-10.9772
▁daughters	-10.9774
३	-10.9775
▁ವರದಿ	-10.9776
▁ইসলাম	-10.9777
▁असलेल्या	-10.9777
▁door	-10.9778
▁ಸಾಮಾನ್ಯ	-10.9778
sis	-10.9779
▁मुलाकात	-10.9781
▁विशिष्ट	-10.9782
▁Nagar	-10.9782
চা	-10.9784
▁केवळ	-10.9788
▁kill	-10.9789
தம்	-10.9789
▁ಇನ್	-10.979
▁aircraft	-10.9793
▁किरदार	-10.98
▁وہ	-10.98
▁செய்யப்பட்ட	-10.9801
93	-10.9803
▁videos	-10.9803
▁score	-10.9805
▁Mohammad	-10.9807
▁যান	-10.9809
रै	-10.9814
▁तुरंत	-10.9815
▁Chandra	-10.9815
▁Kannada	-10.9816
▁summer	-10.9818
root	-10.982
স্ক	-10.982
▁ਸ੍ਰੀ	-10.9823
શુ	-10.9823
ਪੇ	-10.9825
▁atmosphere	-10.9827
ऱ्या	-10.9828
કલ	-10.9829
▁silver	-10.9829
▁ਹੁੰਦੇ	-10.983
জো	-10.9832
▁eye	-10.9834
ாது	-10.9836
দেশ	-10.9836
पद	-10.9837
ल्ला	-10.9838
ப்பை	-10.9839
गल	-10.984
▁संरक्षण	-10.984
ંત	-10.9842
ੰਡ	-10.9844
▁দেশের	-10.9844
▁কেমন	-10.9846
▁implemented	-10.9848
ਵੱਖ	-10.9851
વન	-10.9851
▁ಸಣ್ಣ	-10.9856
▁ಇಷ್ಟ	-10.9856
गण	-10.9857
▁Each	-10.9857
▁eating	-10.9861
▁sought	-10.9861
▁perform	-10.9864
▁matters	-10.9865
▁दुख	-10.9865
ough	-10.9865
ங்களுக்கு	-10.9867
▁rather	-10.9867
ren	-10.9868
▁ಮಿಶ್ರಣ	-10.987
বিদ	-10.987
▁marks	-10.9875
▁ખુબ	-10.9878
▁starts	-10.9879
▁कराने	-10.9882
ವೈ	-10.9884
AM	-10.9884
▁butter	-10.9887
sky	-10.9887
▁Power	-10.989
▁resources	-10.9892
▁எடுக்க	-10.9894
टिंग	-10.9894
▁তাঁদের	-10.9895
षण	-10.9899
बाबत	-10.99
▁ideal	-10.9902
▁गुन्हा	-10.9902
▁ਹੁੰਦੀ	-10.9904
এল	-10.9905
count	-10.9906
کار	-10.9908
▁false	-10.9909
mil	-10.991
ন্স	-10.9913
मुख	-10.9913
▁सक्रिय	-10.9915
ंचे	-10.9917
wood	-10.9918
▁notification	-10.992
▁முழு	-10.9923
09	-10.9923
▁সেটি	-10.9926
▁challenges	-10.9926
▁sw	-10.9928
પૂર્વ	-10.9934
▁partner	-10.9936
▁beat	-10.9937
▁பழ	-10.9938
আমি	-10.9939
▁profit	-10.994
জন্ম	-10.994
▁என்றார்	-10.9941
ியல்	-10.9942
மற்ற	-10.9943
ulation	-10.9947
▁বন্ধ	-10.995
হো	-10.9951
ચાલ	-10.9954
▁transfer	-10.9954
▁जिनमें	-10.9954
ination	-10.9955
▁রাজ্য	-10.9956
▁परिस्थिती	-10.9957
▁Station	-10.9958
▁powder	-10.9959
32	-10.9959
▁पुन्हा	-10.9959
▁न्यायाधीश	-10.996
▁ಆರೋಪಿ	-10.9962
▁அவரது	-10.9963
▁Team	-10.9963
▁ಪರ	-10.9963
ಓ	-10.9964
▁तुमच्या	-10.9966
▁স্বাস্থ্য	-10.9968
ಗ್ರ	-10.9968
▁झाल्या	-10.997
▁ingredients	-10.997
poll	-10.9971
nar	-10.9972
▁perfect	-10.9977
▁कर्मचारी	-10.9978
ಟೋ	-10.9979
▁અનેક	-10.998
▁மீண்டும்	-10.9982
▁खरीद	-10.9983
▁सफलता	-10.9985
ஊ	-10.9985
▁ਜ਼ਰੂਰੀ	-10.9985
கம்	-10.9985
ature	-10.9985
▁ಜನರ	-10.9986
▁অন্তত	-10.9991
ાવ	-10.9991
▁welcome	-10.9994
▁खेळ	-10.9994
▁कॅ	-10.9996
ಸರ್	-10.9997
▁helped	-10.9997
ইউ	-10.9998
लेल्या	-11.0001
রিয়া	-11.0003
▁chairman	-11.0006
▁ਧਿਆਨ	-11.0006
200	-11.0007
Br	-11.0007
ੱਟ	-11.0008
ઊ	-11.0008
धार	-11.001
▁alcohol	-11.0014
▁વિકાસ	-11.0014
▁ಮಾಡುತ್ತದೆ	-11.0015
▁உதவி	-11.0018
▁इन्	-11.0022
ਸੇ	-11.0022
▁tests	-11.0022
ಿರ	-11.0024
ਪਰ	-11.0026
▁সম্প	-11.0027
▁everybody	-11.0028
▁tour	-11.003
▁याची	-11.0032
▁জানেন	-11.0036
બુ	-11.0036
ालय	-11.004
▁Bible	-11.0042
ಿದರೆ	-11.0045
▁கேட்ட	-11.0046
வரை	-11.0047
চল	-11.0047
▁বন্ধু	-11.0048
▁tough	-11.0049
ग्रह	-11.005
▁এখন	-11.0051
सल	-11.0052
▁Sur	-11.0054
▁Family	-11.0056
▁Today	-11.0056
▁যাই	-11.0056
▁birthday	-11.0056
ets	-11.0057
म्ब	-11.0058
▁ideas	-11.0058
ল্	-11.0058
लेट	-11.0059
▁depend	-11.0062
▁खराब	-11.0063
মের	-11.0066
્યૂ	-11.0067
▁managed	-11.0069
ா்	-11.0069
▁अनिल	-11.007
ಳ್ಳ	-11.0071
मस	-11.0072
গ্রাম	-11.0072
08	-11.0073
▁Sara	-11.0074
▁technical	-11.0076
▁माना	-11.0077
ण्याचा	-11.0079
தான	-11.0079
▁Sports	-11.0082
▁मंजूरी	-11.0083
▁नये	-11.0084
ey	-11.0086
duct	-11.0089
pack	-11.0091
▁silent	-11.0094
दर्श	-11.0099
▁तेव्हा	-11.0099
ण्यास	-11.01
▁रहेगा	-11.0103
▁ભાજપ	-11.0103
▁ಸಮ	-11.0104
▁ਫਿਲਮ	-11.0106
▁walk	-11.0107
▁वोट	-11.011
▁crowd	-11.0112
▁अनुसंधान	-11.0113
▁drinking	-11.0115
ಭಾ	-11.0115
▁खाद्य	-11.0115
▁மட்டுமே	-11.0116
48	-11.0117
▁appreciated	-11.0118
فی	-11.0119
▁excited	-11.0123
দিকে	-11.0126
▁पॉ	-11.0128
cial	-11.0131
▁Alia	-11.0132
ીએ	-11.0135
▁ધ્યાન	-11.0135
▁নিতে	-11.0136
▁કહે	-11.0137
▁संबोधित	-11.0138
ળી	-11.0139
cus	-11.0139
▁যেমন	-11.0139
▁engine	-11.014
▁रहती	-11.0142
?"	-11.0142
▁ಅವನ	-11.0144
▁পারছি	-11.0144
▁Limited	-11.0146
▁probably	-11.0148
ض	-11.0149
fu	-11.015
▁ਟੀਮ	-11.0152
ಿಸಿದ	-11.0154
▁சேர்க்கவும்	-11.0155
▁शासन	-11.0156
CA	-11.0162
▁हवाई	-11.0164
જુ	-11.0166
▁ಕ್ಯಾ	-11.0167
cr	-11.0169
બે	-11.0172
▁ಮೂರು	-11.0173
যুদ্ধ	-11.0175
▁શેર	-11.0176
▁ਆਪ	-11.0176
▁स्वयं	-11.0177
▁सम्	-11.0177
▁விரும்ப	-11.0177
▁centres	-11.0178
▁cast	-11.0179
▁starting	-11.0181
▁काँग्रेस	-11.0182
ರನ್ನು	-11.019
▁cricketer	-11.0191
▁Use	-11.0193
▁दायर	-11.0194
▁lawyer	-11.0195
▁ಪಕ್ಷ	-11.0195
न्द	-11.0196
ਿਸ	-11.0197
▁कसे	-11.0197
ப்பா	-11.0198
ರಿಸ	-11.0199
she	-11.0201
BSE	-11.0201
▁सूत्रों	-11.0202
ಮೈ	-11.0203
दू	-11.0205
▁રાખ	-11.0209
▁व्यक्ती	-11.0209
tics	-11.021
▁सगळ्या	-11.0211
ਣੇ	-11.0212
ੱਲ	-11.0213
kha	-11.0213
▁રૂપિયા	-11.0214
▁हिंदू	-11.0214
▁Good	-11.0219
▁খারাপ	-11.0219
▁UK	-11.0219
▁બહાર	-11.022
▁તેણે	-11.0221
anda	-11.0224
▁kitchen	-11.0224
▁Bas	-11.0225
▁Anyway	-11.0226
▁தனி	-11.0226
ફિ	-11.0227
▁मतदान	-11.0229
▁નિર્ણય	-11.0229
▁vitamin	-11.0231
▁घड	-11.0233
▁Gold	-11.0235
▁speaking	-11.0235
▁सिस्टम	-11.0236
▁ਵਿਚਾਰ	-11.0236
▁युवक	-11.0237
▁ಮಾಡಿದ	-11.0239
ાળ	-11.024
04	-11.0241
▁liked	-11.0241
▁શરીર	-11.0241
தில்	-11.0242
▁শিশু	-11.0245
My	-11.0245
▁बहु	-11.0247
mark	-11.0247
▁cell	-11.0248
ವಾರ	-11.0249
از	-11.0253
ান্ত	-11.0253
सीआई	-11.0253
ર્ડ	-11.0253
ches	-11.0257
▁ਪਾਰਟੀ	-11.0257
▁रूस	-11.0257
بر	-11.0259
izing	-11.026
▁ಪರೀಕ್ಷೆ	-11.0261
▁ಕೇಳ	-11.0263
▁રૂમ	-11.0264
▁পরিস্থিতি	-11.0267
▁exchange	-11.0267
▁ಅರ್ಥ	-11.0269
▁fit	-11.027
▁ಇದರಲ್ಲಿ	-11.0271
▁ਘਟਨਾ	-11.0271
ਰਸ	-11.0273
பாடு	-11.0273
▁Action	-11.0273
▁factor	-11.0274
ಜು	-11.0275
▁फायदा	-11.0276
▁त्याने	-11.0278
▁લાગે	-11.0278
▁cinema	-11.0279
چھ	-11.0279
फै	-11.028
▁billion	-11.0281
That	-11.0282
▁answers	-11.0283
நெ	-11.0286
▁மருத்துவ	-11.0288
▁setting	-11.0288
▁जैसी	-11.0289
▁thoughts	-11.0289
पीएस	-11.0289
ிறோம்	-11.029
ங்கள	-11.0292
▁रोल	-11.0292
ست	-11.0292
▁जिलों	-11.0294
▁performed	-11.0297
▁ગઈ	-11.0301
ama	-11.0302
▁incidents	-11.0302
▁शक	-11.0304
ware	-11.0307
ાં	-11.0308
▁जोर	-11.0308
▁Express	-11.0309
own	-11.031
সু	-11.031
▁beauty	-11.0313
▁1.5	-11.0315
▁ಭೇಟಿ	-11.0316
▁[]	-11.0316
ਹੁ	-11.0317
ેડ	-11.0317
▁CEO	-11.032
▁घटक	-11.0321
▁ಪಂದ್ಯ	-11.0322
▁बाब	-11.0322
▁drive	-11.0323
▁Germany	-11.0323
▁headed	-11.0325
चल	-11.0327
मोहम्मद	-11.0328
▁ಅಂತಹ	-11.0329
▁ਚੋਣ	-11.0332
bil	-11.0332
▁Anand	-11.0334
▁none	-11.0334
scale	-11.0336
न्य	-11.0338
race	-11.0339
ોના	-11.0339
করণ	-11.034
કરા	-11.0342
ઇન	-11.0342
▁animal	-11.0342
pose	-11.0343
ye	-11.0345
▁Chandigarh	-11.0345
▁ಅದೇ	-11.0348
▁Further	-11.0349
ون	-11.035
युक्त	-11.0352
▁identify	-11.0352
▁rainfall	-11.0356
▁લાગ	-11.0358
▁অন	-11.0358
▁Inter	-11.0358
▁इंग्लैंड	-11.0359
▁ਕੇਂਦਰ	-11.036
ಕಾರ್	-11.0361
▁शांति	-11.0361
वादी	-11.0362
▁कथित	-11.0363
પર	-11.0364
▁Life	-11.0364
▁सम्मेलन	-11.0365
700	-11.0365
▁believed	-11.0366
nia	-11.0367
▁પ્રેમ	-11.0369
▁লাভ	-11.0371
ੱਖ	-11.0372
▁require	-11.0372
▁যায়নি	-11.0374
Mo	-11.0374
gal	-11.0376
▁March	-11.0377
ಚ್	-11.0379
▁Chhattisgarh	-11.0379
▁கலந்து	-11.0379
▁મૂક	-11.038
▁ਖੇਡ	-11.0381
▁ಸೇರ	-11.0381
ero	-11.0385
দান	-11.0385
▁#	-11.0386
64	-11.0388
▁units	-11.0389
▁करनी	-11.039
▁holiday	-11.0391
ात्मक	-11.0392
▁crisis	-11.0394
▁ہم	-11.0396
▁বছর	-11.0402
धु	-11.0402
▁कड़ी	-11.0403
▁Bangalore	-11.0403
▁ಅಂತ	-11.0405
ಪೆ	-11.0405
ker	-11.0408
▁reduced	-11.0414
▁মারা	-11.0416
তী	-11.0416
▁પડે	-11.0419
▁बिल्कुल	-11.0421
पेट	-11.0424
ड्या	-11.0424
▁तीनों	-11.0425
खी	-11.0425
નુ	-11.0426
▁असतो	-11.0427
▁Ashok	-11.0431
▁रखें	-11.0435
دہ	-11.0436
▁लेख	-11.0438
▁চিন্তা	-11.044
▁வேண்டிய	-11.0441
▁wind	-11.0442
thy	-11.0443
▁industrial	-11.0443
▁वजन	-11.0445
ਬੁ	-11.0445
▁আম	-11.0445
not	-11.0449
ंबर	-11.0449
▁UN	-11.0451
▁நன்றி	-11.0451
HD	-11.0453
ME	-11.0455
96	-11.0457
তাম	-11.046
ंप	-11.0461
▁suspended	-11.0461
▁brothers	-11.0464
cas	-11.0464
▁लक्षण	-11.0465
િલ	-11.0466
▁মূল	-11.0468
▁নারী	-11.0469
जनक	-11.0474
▁সুযোগ	-11.0475
▁harm	-11.0477
▁university	-11.0478
▁விலை	-11.0478
▁ਸਹੀ	-11.0479
▁limited	-11.0481
ন্য	-11.0481
▁Ltd	-11.0482
▁સમસ્યા	-11.0482
▁பேர	-11.0484
সল	-11.0486
▁பதில்	-11.0487
▁पहुंचे	-11.0488
27	-11.0489
▁নাকি	-11.049
▁ਕਿਉਂਕਿ	-11.0491
▁ਰੰਗ	-11.0492
ender	-11.0492
▁શ્રી	-11.0493
▁अपील	-11.0493
▁respectively	-11.0494
raw	-11.0494
ੜ੍ਹ	-11.0494
পাল	-11.0495
শ্	-11.0495
▁કરોડ	-11.0495
▁যার	-11.0498
▁stands	-11.05
▁platform	-11.05
▁ಮುಖ್ಯಮಂತ್ರಿ	-11.05
ಮಾಡ	-11.0502
▁सुशांत	-11.0502
ிறது	-11.0502
ખી	-11.0507
▁કેન્દ્ર	-11.0507
▁handle	-11.0509
ਗੁ	-11.0514
▁तसे	-11.0514
▁Cut	-11.0516
▁fuel	-11.0519
▁রাখা	-11.052
▁ਸਕਦੀ	-11.0521
▁standard	-11.0522
▁पीठ	-11.0523
▁অত্যন্ত	-11.0526
arm	-11.0529
part	-11.053
So	-11.0531
▁Dhaka	-11.0532
▁fruit	-11.0534
तम	-11.0536
▁battle	-11.0536
हां	-11.0537
▁अंतर्गत	-11.0539
▁floor	-11.054
ण्ड	-11.054
▁2013	-11.054
ase	-11.0541
▁Vir	-11.0545
▁अल	-11.0545
▁হই	-11.0549
ges	-11.055
ئے	-11.0551
▁Civil	-11.0556
द्	-11.0557
NC	-11.0557
▁آپ	-11.0557
▁mass	-11.0558
्ह	-11.0561
ಿಂಗ್	-11.0562
ಪತ್ರ	-11.0566
▁particularly	-11.0566
▁ಇನ್ನು	-11.0568
▁dog	-11.0568
त्रि	-11.057
▁posts	-11.057
▁carry	-11.0573
▁ವಿಚಾರ	-11.0574
▁Rama	-11.0576
▁enhance	-11.0577
گی	-11.0577
▁ஆகிய	-11.0577
ced	-11.0578
ದಾರ	-11.0579
▁winning	-11.0582
Re	-11.0584
▁फिल्मों	-11.0584
▁rupees	-11.0585
▁कंपनियों	-11.0586
▁गैर	-11.0586
▁উপায়	-11.0586
▁सुरु	-11.0588
▁appearance	-11.0589
▁ಸಿದ್ಧ	-11.0589
▁পাই	-11.0591
▁lockdown	-11.0591
ong	-11.0593
પણ	-11.0594
▁सक्षम	-11.0594
▁कहानी	-11.0594
वाय	-11.0595
▁இப்போது	-11.0597
હી	-11.0599
▁ਸਾਡੇ	-11.0599
▁रहेंगे	-11.06
ણુ	-11.0604
▁प्रस्तुत	-11.0608
▁clearly	-11.0609
▁ஆனா	-11.0609
ಶಾ	-11.061
81	-11.0612
▁draw	-11.0612
▁document	-11.0612
यन	-11.0612
▁সাধারণ	-11.0616
விட்டது	-11.0617
jan	-11.0618
▁beneficial	-11.0621
▁combination	-11.0625
▁मिलकर	-11.0625
▁ಉತ್ಪನ್ನ	-11.0627
ease	-11.0629
aries	-11.0632
▁location	-11.0632
▁अभ्यास	-11.0633
द्वारे	-11.0634
ोज	-11.0635
▁উচ্চ	-11.0635
बार	-11.0635
▁परेशान	-11.0635
cel	-11.0636
▁registration	-11.0636
▁gift	-11.064
▁update	-11.0641
EC	-11.0641
ট্র	-11.0642
▁જોઈ	-11.0643
▁flour	-11.0643
▁এবার	-11.0643
▁चै	-11.0644
▁डालें	-11.0645
▁agricultural	-11.0646
vent	-11.0647
If	-11.0647
ைய	-11.0648
▁properly	-11.0648
ಧಾ	-11.0649
▁সময়ে	-11.065
▁greater	-11.0651
▁Ya	-11.0651
▁Arun	-11.0652
▁भोजन	-11.0653
ঞ্জ	-11.0655
મેન્ટ	-11.0656
ੈਂ	-11.0656
मेल	-11.0657
শো	-11.0659
उत्	-11.0659
▁अगदी	-11.0661
▁symbol	-11.0662
▁code	-11.0662
▁Social	-11.0663
eng	-11.0664
▁युद्ध	-11.0665
▁shops	-11.0665
▁okay	-11.0666
October	-11.0667
▁Bhu	-11.0668
▁iPhone	-11.067
stream	-11.067
▁ஆண்டு	-11.067
▁television	-11.0671
ટલ	-11.0676
▁arise	-11.0676
▁placed	-11.0678
▁இங்கு	-11.0682
পূর্ণ	-11.0682
arch	-11.0682
ாள்	-11.0682
▁تو	-11.0683
▁ಸಂದರ್ಭದಲ್ಲಿ	-11.0686
▁ಸರಳ	-11.0688
hra	-11.0689
கொண்ட	-11.069
▁ನಿಯಮ	-11.069
▁गेले	-11.0691
▁செய்வ	-11.0692
▁போட்டி	-11.0692
▁Jharkhand	-11.0693
▁सौ	-11.0694
ena	-11.0694
▁উদ্ধার	-11.0694
આઇ	-11.0694
ವಹಿಸ	-11.0697
▁cat	-11.0697
▁ಹಲವು	-11.0697
▁कधी	-11.0698
ब्रा	-11.07
▁केजरीवाल	-11.0705
ிலிருந்து	-11.0705
▁बिजली	-11.0707
▁lies	-11.0708
motion	-11.071
டன்	-11.0712
▁Tu	-11.0713
zz	-11.0716
▁सांस्कृतिक	-11.0717
▁நோய்	-11.0717
▁honour	-11.0718
▁movies	-11.0725
▁કરીએ	-11.0727
▁நடத்த	-11.073
▁ખાન	-11.0731
िटी	-11.0732
how	-11.0733
▁audience	-11.0733
▁राजधानी	-11.0734
▁Himachal	-11.0737
▁தொடங்க	-11.0739
dent	-11.074
script	-11.074
▁இப்படி	-11.0742
▁एजेंसी	-11.0742
28	-11.0743
▁डिजिटल	-11.0746
▁meal	-11.0747
▁fault	-11.0749
▁Kareena	-11.0749
▁लक्ष	-11.075
▁ಕುಟುಂಬ	-11.0751
▁accounts	-11.0752
▁ಇದ	-11.0754
▁उचित	-11.0757
▁ತಪ್ಪ	-11.0758
work	-11.0758
மொழி	-11.0758
ड्	-11.0759
▁नेटवर्क	-11.0759
▁ಸೇವೆ	-11.0759
কু	-11.076
▁ਅਨੁਸਾਰ	-11.0761
▁पर्यावरण	-11.0763
▁करतात	-11.0767
▁गर्म	-11.0767
▁எழுத	-11.0767
ਸਕ	-11.0769
ধ্য	-11.0769
▁panel	-11.077
▁ਜਾਂਦੀ	-11.0771
▁ಪ್ರಕ್ರಿಯೆ	-11.0775
▁टीवी	-11.0775
▁বিজেপি	-11.0778
جن	-11.0779
▁निर्धारित	-11.0781
▁हैदराबाद	-11.0782
▁ખર્ચ	-11.0783
▁पुरुष	-11.0783
क्क	-11.0788
ટિ	-11.0788
੍ਰਿ	-11.0789
ਾਨ	-11.079
હે	-11.079
ੰਗ	-11.0797
▁ರೀತಿ	-11.0797
▁चाहती	-11.0798
सै	-11.0798
ियम	-11.0798
ষ্ঠ	-11.0799
▁views	-11.0799
▁वैश्विक	-11.0799
▁rec	-11.08
▁Out	-11.0802
▁spent	-11.0803
zo	-11.0805
▁victims	-11.0806
▁immediate	-11.0808
rup	-11.0809
▁innings	-11.0812
▁সংখ্যা	-11.0814
▁island	-11.0815
▁acting	-11.0815
▁French	-11.0818
મત	-11.0819
દે	-11.0819
નિક	-11.0822
AC	-11.0822
uring	-11.0823
bir	-11.0823
▁stock	-11.0823
ಾಗಿದೆ	-11.0824
४	-11.0825
IN	-11.0825
▁Management	-11.0825
ट्र	-11.0827
▁पदक	-11.0828
▁જ્યાં	-11.083
▁comments	-11.0831
▁শহর	-11.0834
टक	-11.0834
maker	-11.0834
sol	-11.0834
পদ	-11.0835
‘	-11.0835
▁संविधान	-11.0838
▁searching	-11.0839
▁Thakur	-11.084
▁detail	-11.0841
▁থাক	-11.0841
▁पहुंचा	-11.0842
▁ਇਲਾਜ	-11.0843
ંચ	-11.0844
▁medium	-11.0845
ರಾಜ	-11.0846
▁हिंसा	-11.0852
▁Step	-11.0857
▁તથા	-11.0857
▁দক্ষিণ	-11.0862
मल	-11.0863
▁स्वागत	-11.0864
्ति	-11.0866
▁moving	-11.0866
▁कल्याण	-11.0867
▁Anushka	-11.0868
BS	-11.0868
▁नेशनल	-11.0869
ामध्ये	-11.0874
லோ	-11.0874
gor	-11.0876
फाई	-11.0876
▁camp	-11.0876
▁होतं	-11.0876
रुप	-11.0877
▁attacks	-11.0877
ર્મ	-11.0877
▁easier	-11.0878
▁ನಿಜ	-11.0881
स्त्र	-11.0885
▁ভিডিও	-11.0886
ছু	-11.0887
▁organization	-11.0889
▁কাজে	-11.089
▁``	-11.089
▁Did	-11.0891
ਅਲ	-11.0893
▁ಕೆಲ	-11.0893
ೊಂದ	-11.09
rum	-11.09
▁winners	-11.0905
yo	-11.0906
MI	-11.0907
▁அதி	-11.0907
▁Dal	-11.091
▁यामुळे	-11.0911
▁आंध्र	-11.0912
▁manufacturing	-11.0913
▁રોગ	-11.0913
▁stations	-11.0916
▁प्रसिद्ध	-11.0917
▁লাগে	-11.0917
oth	-11.0918
▁instead	-11.0919
ਕ੍ਰ	-11.0921
ફ્ર	-11.0921
▁चलते	-11.0922
ਲਾਂ	-11.0925
▁shoot	-11.0928
▁glad	-11.093
த்துக்கு	-11.093
▁ಹಾಕಿ	-11.093
gree	-11.0931
03	-11.0932
▁કરતાં	-11.0936
>	-11.0936
▁நம்ப	-11.0938
tract	-11.0939
▁powerful	-11.0939
▁नदी	-11.094
जित	-11.094
பை	-11.0941
▁ਕੀਮਤ	-11.0942
▁Sinha	-11.0942
▁ಅರ್ಜಿ	-11.0943
یو	-11.0946
▁কিভাবে	-11.0947
▁ended	-11.095
▁requires	-11.0953
▁rally	-11.0953
▁दोस्त	-11.0954
▁promise	-11.0955
An	-11.0955
September	-11.0961
▁બધી	-11.0961
▁Amarinder	-11.0963
போல	-11.0965
૧	-11.0965
▁ದೂರ	-11.0965
▁குறிப்பிட்ட	-11.0966
▁संबंधी	-11.0967
▁devices	-11.0969
▁ಸಂಭವಿಸ	-11.0969
▁relax	-11.0969
রাম	-11.097
સમ	-11.0971
ক্র	-11.0972
▁Min	-11.0972
▁fighting	-11.0972
लिंग	-11.0974
▁Chi	-11.0975
▁facility	-11.0975
க்கா	-11.0975
▁சிறந்த	-11.0976
▁अक्षय	-11.0977
▁प्रधान	-11.098
▁Transport	-11.098
▁मौजूदा	-11.0982
▁weeks	-11.0987
▁ਸ਼ਹਿਰ	-11.099
બ્	-11.0991
07	-11.0993
▁title	-11.0994
▁Ji	-11.0995
▁Which	-11.0995
wer	-11.0997
▁मोठ्या	-11.0998
▁Pawar	-11.1
▁songs	-11.1001
ਰੁ	-11.1001
▁મીડિયા	-11.1001
ಸಂಸ್ಥೆ	-11.1003
▁entirely	-11.1004
▁गिरफ्तारी	-11.1004
▁ਵਰਤੋਂ	-11.1006
▁আসে	-11.1006
▁বর্তমানে	-11.1006
▁धो	-11.1007
ડ્ર	-11.1008
▁colleges	-11.1008
▁Code	-11.1008
கூ	-11.1009
ley	-11.1011
▁species	-11.1012
▁ਅਜਿਹੇ	-11.1015
▁மாற	-11.1018
▁Donald	-11.1019
▁possibility	-11.1019
gam	-11.1019
ਵੈ	-11.102
▁मारे	-11.1021
like	-11.1022
▁missing	-11.1022
▁বই	-11.1022
ٹر	-11.1023
ट्स	-11.1023
ney	-11.1023
गार	-11.1024
▁implementation	-11.1026
36	-11.1028
ரும்	-11.1028
ದ್ರ	-11.1028
ਕਿ	-11.103
▁ધરાવે	-11.1034
dic	-11.1036
পর	-11.1036
▁दिस	-11.1038
▁அவன்	-11.104
▁medicines	-11.1042
▁अतिशय	-11.1042
▁સમગ્ર	-11.1042
▁वकील	-11.1045
▁ಎನ್ನ	-11.1045
பர்	-11.1046
▁nearly	-11.1047
▁বলব	-11.1048
▁Play	-11.1049
▁Nar	-11.1058
▁মানুষের	-11.1058
▁broke	-11.1058
nes	-11.106
▁ਵਿਸ਼ੇਸ਼	-11.1061
▁ಮಾಡಬಹುದು	-11.1062
▁रहता	-11.1064
▁funds	-11.1068
▁ಇದೇ	-11.107
▁आकार	-11.1071
hum	-11.1071
Qu	-11.1074
▁ಗಮನ	-11.1076
▁পরীক্ষা	-11.108
▁Gupta	-11.1083
▁Che	-11.1083
▁ਕਰੋੜ	-11.1084
बद्ध	-11.1084
▁Asian	-11.1085
▁Dar	-11.1085
▁Authority	-11.1086
aff	-11.1086
▁compared	-11.1087
▁Za	-11.1087
origin	-11.1088
▁ہی	-11.1089
▁অবশ্যই	-11.1089
▁Bir	-11.1094
प्प	-11.1094
▁कलाकार	-11.1097
NS	-11.1097
▁खत्म	-11.1098
▁ICC	-11.1099
▁کم	-11.1099
▁trend	-11.11
▁Chand	-11.1101
▁அவருக்கு	-11.1104
▁awarded	-11.1106
ங்களும்	-11.1108
र्ज	-11.1109
ર્ક	-11.1109
▁brief	-11.1109
▁માતા	-11.111
▁குடும்ப	-11.111
ہر	-11.1114
▁import	-11.1115
▁pregnant	-11.1116
વાનું	-11.1116
ेंस	-11.1119
than	-11.1121
ಿನಲ್ಲಿ	-11.1122
ઉ	-11.1123
▁sta	-11.1125
100	-11.1126
▁कठिन	-11.1127
মাল	-11.1127
November	-11.1129
ਪਾਲ	-11.1129
िकल	-11.1129
એન	-11.1129
▁electricity	-11.113
▁கோடி	-11.113
▁अरब	-11.113
▁લાખ	-11.1131
▁anybody	-11.1131
▁આપવા	-11.1132
স্থ	-11.1132
▁संशोधन	-11.1134
▁பல்வேறு	-11.1138
▁Member	-11.1138
▁Speaking	-11.1141
▁rescue	-11.1145
▁achieved	-11.1145
▁ব্যাপারটা	-11.1148
▁invited	-11.1149
▁Sea	-11.115
▁शकतात	-11.1152
▁ਕਾਰਵਾਈ	-11.1154
gy	-11.1156
▁Aamir	-11.1158
eer	-11.1159
member	-11.1163
▁इंटरनेट	-11.1164
دھ	-11.1166
▁joy	-11.1166
▁ভাই	-11.1167
▁vitamins	-11.1168
▁York	-11.1169
িম	-11.117
▁বলেছেন	-11.1176
▁Gur	-11.1177
▁ਡਾਕਟਰ	-11.1177
▁हमला	-11.1178
▁ಆದ	-11.1178
▁குறைந்த	-11.1179
▁सुपर	-11.1181
▁lots	-11.1181
क्‍	-11.1183
পড়	-11.1184
^(	-11.1185
ल्ल	-11.1186
▁commercial	-11.1188
वै	-11.1189
▁वास्तविक	-11.1189
▁numerous	-11.119
ரீ	-11.119
▁farm	-11.119
দ্ধ	-11.1191
▁નરેન્દ્ર	-11.1193
▁कौशल	-11.1193
ঠা	-11.1194
ੁਕ	-11.1194
वेळी	-11.1194
▁முன்ன	-11.1196
uddin	-11.1197
▁पड़ता	-11.1197
દ્ધ	-11.1198
▁নিন	-11.1199
▁খেলা	-11.12
▁மாவட்ட	-11.1201
ांवर	-11.1202
▁massive	-11.1202
ਣੀ	-11.1203
▁सुख	-11.1203
▁Shetty	-11.1203
▁constant	-11.1204
در	-11.1204
dam	-11.1204
▁દાખલ	-11.1207
▁संदर्भ	-11.121
مو	-11.121
▁governments	-11.1213
kan	-11.1214
▁meat	-11.1215
યોગ	-11.1218
ூர்	-11.122
▁skill	-11.1221
ஆ	-11.1223
▁পানি	-11.1224
▁Col	-11.1227
IA	-11.1228
▁দ্রুত	-11.1228
▁લખ	-11.1228
▁Please	-11.1231
ેજ	-11.1232
ਉਂ	-11.1234
BC	-11.1235
▁கரு	-11.1236
▁seek	-11.124
▁ਸਕੂਲ	-11.1241
▁இருப்ப	-11.1243
க்கள்	-11.1244
ंमध्ये	-11.1246
▁त्यांची	-11.125
▁Along	-11.1251
ಚಾ	-11.1254
▁educational	-11.1255
ier	-11.1256
▁Raja	-11.1256
▁Corona	-11.1258
grad	-11.126
ನೆಯ	-11.126
শ্র	-11.1261
▁desire	-11.1264
િસ	-11.1265
▁सुरुवात	-11.1265
▁देखें	-11.1265
▁ਸੁਰੱਖਿਆ	-11.1265
مہ	-11.1267
வோ	-11.1272
▁mouth	-11.1273
தொ	-11.1277
ound	-11.1279
ಗಳೊಂದಿಗೆ	-11.128
▁ਵਿੱਚੋਂ	-11.1281
▁Five	-11.1283
▁developing	-11.1283
▁ਲੈਣ	-11.1284
▁कहीं	-11.1286
▁Welfare	-11.1287
▁முடிவு	-11.1288
▁गैस	-11.1289
▁निर्म	-11.129
▁দ্বিতীয়	-11.129
▁स्थिर	-11.1293
கல	-11.1294
ાઓ	-11.1294
▁গিয়ে	-11.1296
▁urged	-11.1296
cept	-11.1298
▁ਸੱਚ	-11.1299
bur	-11.1299
▁ಶ್ರೀ	-11.13
▁Korea	-11.13
▁organisation	-11.1301
ைப்	-11.1306
▁ਮੰਗ	-11.1308
▁তোমাকে	-11.1309
▁chaired	-11.131
▁quiet	-11.131
▁लंबे	-11.1313
▁নই	-11.1316
▁ਵਜੋਂ	-11.1317
▁respond	-11.1319
हरी	-11.1319
aging	-11.1324
घा	-11.1324
साइ	-11.1327
পো	-11.1328
▁June	-11.1328
▁relevant	-11.1328
▁Mamata	-11.1329
ங்கி	-11.133
હુ	-11.1332
भाष	-11.1332
▁Mon	-11.1333
ಕಾರಿ	-11.1333
▁nine	-11.1333
▁चांगले	-11.1336
▁विदेशी	-11.1339
ವಿನ	-11.1346
ack	-11.1346
▁calm	-11.1346
▁तमिलनाडु	-11.1351
▁resolution	-11.1352
▁परिवहन	-11.1352
ಾಯಿ	-11.1357
▁struggle	-11.1358
▁Those	-11.1358
▁आधुनिक	-11.1359
▁Very	-11.1365
मुक्त	-11.1365
▁விஷய	-11.1366
▁Mor	-11.1367
▁vaccination	-11.1368
▁مع	-11.1368
اف	-11.1368
rk	-11.137
▁ಪರಿಹಾರ	-11.1371
শে	-11.1371
▁ಸೂಕ್ತ	-11.1372
▁रोजगार	-11.1377
ಸೂ	-11.1378
फाय	-11.138
awa	-11.1382
▁परिसर	-11.1385
▁પ્રયાસ	-11.1385
মী	-11.1385
▁ಜೊತೆ	-11.1385
▁पैर	-11.139
▁brain	-11.1391
▁जिन्होंने	-11.1393
▁ਵਿਭਾਗ	-11.1393
ડિ	-11.1394
lum	-11.1394
eth	-11.1396
সাম	-11.1396
ક્ટ	-11.14
रियल	-11.1404
वले	-11.1404
29	-11.1404
ள்ள	-11.1405
▁teacher	-11.1408
▁बातें	-11.1408
▁गुणवत्ता	-11.1409
▁bio	-11.1416
▁Post	-11.1417
▁पाई	-11.1417
▁सीटें	-11.1418
▁ਹੋਣਾ	-11.142
चु	-11.1421
स्व	-11.1422
shan	-11.1423
ताओं	-11.1424
સન	-11.1425
▁होनी	-11.1426
▁बावजूद	-11.1427
▁sex	-11.1427
لو	-11.1428
வது	-11.1428
▁गति	-11.1428
▁existing	-11.143
ಂತಹ	-11.143
ट्ट	-11.143
▁વખત	-11.1431
ळ्या	-11.1431
ND	-11.1432
ுதல்	-11.1432
SE	-11.1435
AD	-11.1437
▁rice	-11.1437
▁कब	-11.1437
वरील	-11.1437
▁answered	-11.1439
▁सवार	-11.1439
▁Similarly	-11.1439
▁सारी	-11.1441
▁plastic	-11.1441
प्रमाणे	-11.1442
ড়ে	-11.1443
▁Yogi	-11.1444
▁উঠ	-11.1444
ರಾಗ	-11.1445
▁इनके	-11.1448
▁constantly	-11.145
rel	-11.1451
▁অথচ	-11.1451
▁உடல்	-11.1451
▁minor	-11.1453
▁partnership	-11.1453
pea	-11.1453
ome	-11.1457
▁চলচ্চিত্র	-11.1458
র্ট	-11.1458
ಬೇಡಿ	-11.1459
▁friendly	-11.1459
▁ઉત્પાદન	-11.146
▁allegedly	-11.1462
▁લઈ	-11.1464
▁reporters	-11.1465
ಖಾ	-11.1466
ळे	-11.1467
▁अक्सर	-11.1467
▁त्याचे	-11.1467
क्यू	-11.1467
પે	-11.1468
রত	-11.147
miss	-11.1471
▁आगामी	-11.1472
▁Hindus	-11.1472
▁leg	-11.1472
▁Ranbir	-11.1473
▁બનાવવા	-11.1475
मैन	-11.1476
hood	-11.1477
▁বহু	-11.1477
▁Tata	-11.1479
▁achievement	-11.1479
SO	-11.1479
▁Sheikh	-11.148
▁ಸಾಧ್ಯವಿಲ್ಲ	-11.148
▁Pu	-11.1482
▁argument	-11.1483
▁ಶಕ್ತಿ	-11.1486
▁લગભગ	-11.1488
▁refer	-11.149
▁tomatoes	-11.1491
▁Keep	-11.1492
▁সন্তান	-11.1492
▁शाहरुख	-11.1493
▁নিহত	-11.1493
▁plane	-11.1495
▁தெரிவித்த	-11.1495
SS	-11.1496
▁Mishra	-11.1496
▁ಇಂ	-11.1497
▁சிறு	-11.1498
Photo	-11.1498
केट	-11.15
க்கம்	-11.1502
মিল	-11.1503
ંદ	-11.1505
▁জয়	-11.1505
uck	-11.1506
▁सेंसर	-11.1506
ಂಟ	-11.1506
▁kinds	-11.1509
▁residents	-11.151
▁ਬਦਲ	-11.151
▁আটক	-11.151
▁कराई	-11.1511
क्षित	-11.1515
▁stories	-11.1516
▁applications	-11.152
02	-11.1521
▁carefully	-11.1522
▁सीएम	-11.1522
▁encounter	-11.1524
ગત	-11.1524
दीप	-11.1525
hil	-11.1525
▁scientific	-11.1525
▁practical	-11.1527
िड	-11.1527
▁Uttarakhand	-11.1527
▁ಇಂತಹ	-11.1531
▁પ્રદેશ	-11.1531
▁ಒಳ	-11.1532
▁समज	-11.1535
ত্য	-11.1536
▁कोणत्याही	-11.1536
▁ಸಿಗ	-11.1536
એલ	-11.1539
জান	-11.1541
ಕಲ್	-11.1541
पीसी	-11.1542
▁organized	-11.1544
▁કુલ	-11.1546
▁skills	-11.1547
ಬು	-11.1549
▁मिलेगी	-11.155
▁sit	-11.155
Co	-11.1551
▁highly	-11.1554
▁wall	-11.1556
ઓમાં	-11.1556
▁ಎಲ್ಲವೂ	-11.1556
▁seeds	-11.1556
een	-11.1557
ನಿಯ	-11.1559
বোধ	-11.1561
▁ਬਣਾ	-11.1561
ಮ್ಯಾ	-11.1561
▁creating	-11.1562
لے	-11.1563
▁वही	-11.1563
ரில்	-11.1563
▁proposed	-11.1565
▁Mah	-11.1567
▁संदेश	-11.1569
▁रुग्णालयात	-11.1571
சம்	-11.1572
▁तिच्या	-11.1573
▁Consult	-11.1574
▁जानता	-11.1575
▁Contact	-11.1576
▁Thus	-11.1576
▁Abdul	-11.1576
▁Airport	-11.1578
தொடர்	-11.1581
भूत	-11.1581
▁খুশি	-11.1583
▁আছেন	-11.1583
▁ਹੇਠ	-11.1584
्प	-11.1585
▁decrease	-11.1586
બર	-11.1586
गढ़	-11.1587
▁चुनौती	-11.159
▁shut	-11.159
ண்டி	-11.1591
mail	-11.1591
▁நன்றாக	-11.1591
▁vice	-11.1593
तून	-11.1593
cate	-11.1593
ೀಕರಣ	-11.1596
▁middle	-11.1597
▁খাবার	-11.1597
▁Christ	-11.1602
▁ਮਹੱਤਵਪੂਰਨ	-11.1603
▁Actress	-11.1603
▁लगाए	-11.1604
▁ਜਵਾਬ	-11.1606
▁પોતાની	-11.1606
body	-11.1606
OS	-11.1609
▁பெரு	-11.161
ਸਿ	-11.1611
terrorism	-11.1612
uch	-11.1613
त्ता	-11.1613
इंड	-11.1614
▁attract	-11.1615
▁ਲੱਖ	-11.1615
▁रोज	-11.1615
▁लेना	-11.1615
▁measure	-11.1617
کہ	-11.1618
speed	-11.1618
भी	-11.1618
▁ગુજરાત	-11.1621
বান	-11.1621
નિર્	-11.1625
▁आपूर्ति	-11.1628
▁implement	-11.1632
▁मालिक	-11.1633
சிய	-11.1634
▁आंदोलन	-11.1635
कुल	-11.1635
એમ	-11.1637
▁Sat	-11.1638
eff	-11.1639
▁সমাধান	-11.164
▁approval	-11.1641
▁advantage	-11.1641
دار	-11.1641
▁understanding	-11.1644
MT	-11.1644
▁extended	-11.1647
▁ਵੱਡੀ	-11.1648
▁ঢাকা	-11.1649
फोन	-11.1649
▁rising	-11.1649
▁করিয়া	-11.1651
▁ரொம்ப	-11.1653
मेर	-11.1653
ণা	-11.1654
तन	-11.1655
▁ನೀರಿನ	-11.1656
▁कर्मचारियों	-11.1659
$	-11.166
▁illegal	-11.166
▁ਸਮਝ	-11.166
▁संसाधन	-11.1662
▁અનુભવ	-11.1662
ade	-11.1666
▁asking	-11.1666
▁climate	-11.1667
▁भावना	-11.1669
ौर	-11.167
▁आवड	-11.1672
91	-11.1674
▁opening	-11.1674
▁تک	-11.1675
▁सभा	-11.1677
▁Ranveer	-11.1679
dec	-11.168
▁aren	-11.1681
પિતા	-11.1682
▁சிகிச்சை	-11.1683
▁क्‍या	-11.1684
▁ಕೋಟಿ	-11.1684
▁विधि	-11.1686
▁injury	-11.1686
▁ਹਿੱਸਾ	-11.1687
▁Port	-11.1687
▁வழக்கு	-11.1688
RBI	-11.1688
ಯೆ	-11.1688
▁કપૂર	-11.1688
▁हाई	-11.1689
▁पाए	-11.1691
hur	-11.1692
ಪೇ	-11.1693
▁सिर	-11.1694
▁judicial	-11.1694
▁जाय	-11.1696
▁कोच	-11.17
ફોન	-11.17
ुर	-11.1702
▁তাঁরা	-11.1702
બો	-11.1704
ತ್ತಿ	-11.1706
▁ਰੱਖ	-11.1707
▁ਵਾਲੀ	-11.1708
நாள்	-11.1708
▁रुग्ण	-11.1708
विक	-11.171
mate	-11.1712
▁કિંમત	-11.1713
વાનો	-11.1716
অভি	-11.1716
চ্ছ	-11.1717
▁शूटिंग	-11.1717
▁Kal	-11.1721
आं	-11.1725
▁সেটাই	-11.1725
લ્સ	-11.1725
▁मुद्दों	-11.1726
हल	-11.1726
dhi	-11.1727
ira	-11.1728
▁ड्र	-11.173
▁Taliban	-11.1733
▁Economic	-11.1733
▁তোমাদের	-11.1735
▁determine	-11.1735
▁আপনাদের	-11.1736
▁WhatsApp	-11.1738
▁basically	-11.1739
▁smooth	-11.1741
▁historical	-11.1742
वीर	-11.1751
▁ಒದಗಿಸ	-11.1752
યે	-11.1753
▁grand	-11.1755
▁शक्य	-11.1756
▁साध	-11.1756
▁अफगानिस्तान	-11.1758
▁জিনিস	-11.1758
core	-11.1759
▁केल्या	-11.1763
▁वित्तीय	-11.1763
Va	-11.1763
्ज	-11.1765
▁અવ	-11.1765
ेगी	-11.1766
▁संकेत	-11.1766
▁fund	-11.1767
erial	-11.1768
▁জানতে	-11.1768
▁boost	-11.1771
=	-11.1772
▁બને	-11.1772
ிற	-11.1772
বর	-11.1773
▁ওরা	-11.1774
▁ಕೈಗೊಳ್ಳ	-11.1777
▁plus	-11.1779
uni	-11.1779
ಲೈ	-11.178
▁হয়েছেন	-11.1782
▁permission	-11.1782
DP	-11.1782
▁cells	-11.1783
▁राजपूत	-11.1785
▁sentence	-11.1787
▁ಅವ	-11.1789
ਗੋ	-11.1793
▁ನರೇಂದ್ರ	-11.1793
top	-11.1794
ிலும்	-11.1794
▁sustained	-11.1796
▁metal	-11.1797
December	-11.1797
▁priced	-11.1798
▁priority	-11.1799
▁மூன்று	-11.18
▁માંગ	-11.18
▁Lu	-11.18
દ્	-11.1801
কর্ম	-11.1802
▁चेन्नई	-11.1805
▁तारीख	-11.1806
क्शन	-11.1807
ங்களின்	-11.1808
▁yellow	-11.1809
ांसाठी	-11.1809
सीबी	-11.1812
▁accompanied	-11.1812
ਰਾਂ	-11.1812
க்கான	-11.1813
▁পছন্দ	-11.1814
▁urban	-11.182
▁Son	-11.1822
▁অভিনয়	-11.1824
▁महान	-11.1825
ுவதற்கு	-11.1825
ਕਸ	-11.1827
▁অপেক্ষা	-11.1828
▁दवा	-11.183
धू	-11.1834
▁जस्टिस	-11.1836
ces	-11.1836
▁ಮತ್ತೆ	-11.184
सीसी	-11.1843
েও	-11.1843
▁तस्वीरें	-11.1843
▁Cook	-11.1845
are	-11.1847
▁ಬಿಡುಗಡೆ	-11.1847
▁rates	-11.1849
sar	-11.1855
▁થવા	-11.1856
▁cabinet	-11.1856
▁सकारात्मक	-11.1856
▁ಮಾರ್ಗ	-11.1858
ುವುದನ್ನು	-11.186
मत	-11.1863
ણો	-11.1867
▁মহিলা	-11.1868
▁যোগাযোগ	-11.1869
ভাবেই	-11.187
ফো	-11.1872
ેટ	-11.1873
ਪੋ	-11.1875
▁শেখ	-11.1875
RS	-11.1876
▁twice	-11.1876
▁इथे	-11.1879
ধি	-11.1883
গ্	-11.1883
▁इच्छा	-11.1884
▁Scheme	-11.1886
ਇਨ	-11.1886
▁Open	-11.1886
▁अर्ज	-11.1889
33	-11.1889
▁चौकशी	-11.1889
▁ನಿಜವಾಗಿಯೂ	-11.1892
િયન	-11.1894
▁hero	-11.1895
মু	-11.1895
▁fill	-11.1896
आउट	-11.1906
▁खुशी	-11.1908
cycl	-11.1908
▁मृत्यु	-11.191
▁पीड़ित	-11.1911
ાણ	-11.1911
ಜ್ಞಾನ	-11.1913
▁ಸರಕಾರ	-11.1915
▁besides	-11.1915
▁ನಡುವೆ	-11.1916
▁talked	-11.1917
▁Royal	-11.1917
▁बच्चन	-11.1919
पण	-11.1919
▁அங்கு	-11.192
ात्	-11.192
▁அவரை	-11.1921
▁Love	-11.1922
નાર	-11.1924
sufficient	-11.1924
्दी	-11.1925
▁ಎರಡೂ	-11.1925
▁estimated	-11.1926
▁granted	-11.1927
▁supported	-11.1927
▁flowers	-11.1929
▁residence	-11.193
▁रद्द	-11.1933
▁experts	-11.1934
▁गठबंधन	-11.1936
▁সম্পূর্ণ	-11.1937
▁नव्हते	-11.1939
▁आशा	-11.1939
ूंगा	-11.194
கொள்	-11.1943
▁पंच	-11.1943
وا	-11.1944
ढा	-11.1944
▁sell	-11.1946
▁কয়েকটি	-11.1946
▁ਮੇਰੇ	-11.1947
▁न्यायमूर्ति	-11.1947
▁noted	-11.1948
▁करे	-11.195
▁बढ़ावा	-11.1951
விட்டு	-11.1952
▁fixed	-11.1955
▁recommend	-11.1958
▁guidelines	-11.1958
▁El	-11.1962
▁সারা	-11.1963
ಎಲ್	-11.1966
த்தா	-11.1967
▁Red	-11.1968
ಬಾರದು	-11.1969
क्‍त	-11.1969
▁থাকা	-11.1971
પક્ષ	-11.1971
▁লক্ষ্য	-11.1972
રૂપ	-11.1972
istic	-11.1973
▁Roy	-11.1974
▁debut	-11.1974
₹	-11.1976
▁अनुमान	-11.1977
▁ನಟ	-11.1977
▁ಸಂಪೂರ್ಣವಾಗಿ	-11.1978
▁உங்கள	-11.1979
▁करार	-11.1979
ತೆಯ	-11.1981
र्द	-11.1982
▁ಈಗ	-11.1983
Oh	-11.1983
ছা	-11.1986
ಂಜ	-11.1986
ுகிறேன்	-11.1992
મૂ	-11.1993
▁ಅತಿ	-11.1994
▁owner	-11.1996
▁संक्रमण	-11.1996
सुद्धा	-11.1997
▁समाप्त	-11.1998
▁participants	-11.1998
ಿದ್ದೆ	-11.1998
▁ਹਮੇਸ਼ਾ	-11.2001
ೇನು	-11.2004
ধর্ম	-11.2006
▁येणार	-11.2006
▁ਦੇਸ਼	-11.2008
स्टे	-11.2009
▁equipped	-11.201
्ले	-11.2011
▁relatives	-11.2011
ुन	-11.2012
हू	-11.2012
▁वायु	-11.2014
▁2011	-11.2015
ातून	-11.2016
▁busy	-11.2017
લું	-11.202
▁Fund	-11.202
▁Investigation	-11.2023
ਜ਼ੀ	-11.2024
▁iron	-11.2026
▁SMS	-11.2026
▁caught	-11.2026
▁thick	-11.2027
▁anywhere	-11.2029
DA	-11.2032
▁ಒಪ್ಪ	-11.2032
▁डिजाइन	-11.2033
▁territory	-11.2039
▁சேர்ந்த	-11.2039
▁ಬದಲಾವಣೆ	-11.2039
ati	-11.2042
▁শ্রী	-11.2045
chan	-11.2046
ிருப்ப	-11.2046
▁Rahman	-11.2046
▁thus	-11.2048
▁फेसबुक	-11.2049
carbon	-11.2052
▁defeat	-11.2054
▁Mission	-11.2054
▁कारोबार	-11.2054
▁स्क्र	-11.2056
ways	-11.2056
ஸ்ட்	-11.2059
▁conversation	-11.2059
lift	-11.2062
▁bath	-11.2062
gr	-11.2063
▁কেবল	-11.2064
▁संस्कृति	-11.2065
மதிப்ப	-11.2066
নিক	-11.2066
▁experiment	-11.2069
▁अंदर	-11.207
▁acted	-11.2071
▁sharing	-11.2074
▁Thackeray	-11.2076
ત્ત	-11.2076
wise	-11.2078
▁किती	-11.2079
▁પ્રધાનમંત્રી	-11.2079
▁घट	-11.208
Mohammed	-11.208
च्च	-11.208
ಠ	-11.2081
▁खोज	-11.2085
▁July	-11.2085
களைப்	-11.2086
স্ট্র	-11.2088
▁initiative	-11.2089
▁જાહેર	-11.2091
र्ष	-11.2092
▁prove	-11.2096
▁pray	-11.2099
▁pieces	-11.2099
▁ફક્ત	-11.2101
ld	-11.2102
▁पहल	-11.2103
▁introduced	-11.2104
▁वाटत	-11.2106
व्हा	-11.2108
ರಾಗಿ	-11.2108
▁alternative	-11.211
▁ಉಳಿದ	-11.2111
▁grateful	-11.2111
भो	-11.2112
▁यूपी	-11.2115
▁January	-11.2115
▁ಉದ್ದೇಶ	-11.2115
▁256	-11.2116
ER	-11.2119
▁ಹೆಚ್ಚ	-11.2119
▁Hon	-11.2121
▁नोंद	-11.2122
▁थाने	-11.2123
▁seeking	-11.2123
▁analysis	-11.2125
▁crop	-11.2126
▁खारिज	-11.2126
▁जोड़	-11.2128
▁भेट	-11.213
▁ਜੀਵਨ	-11.2132
િય	-11.2135
▁હેઠળ	-11.2136
विरुद्ध	-11.2137
▁অঞ্চল	-11.2137
▁सहायक	-11.2138
▁घेतला	-11.214
▁Christian	-11.214
কৃত	-11.2141
▁उसी	-11.2142
आईए	-11.2142
▁ಹೀಗೆ	-11.2148
▁ಅಭಿವೃದ್ಧಿ	-11.2152
▁ಯಾವಾಗಲೂ	-11.2155
▁Char	-11.2157
ક્રમ	-11.2157
▁Reddy	-11.2157
▁Dutt	-11.2157
lon	-11.2159
भु	-11.2159
▁Adityanath	-11.2161
▁ਹੋਣ	-11.2161
▁ঘোষণা	-11.2162
▁ಜೀವನ	-11.2162
▁অপ	-11.2167
चि	-11.2168
▁त्यासाठी	-11.2168
▁হোক	-11.217
ಏ	-11.2172
▁व्यवहार	-11.2172
ਨੂੰ	-11.2174
▁मं	-11.2175
▁foundation	-11.2175
વ્ય	-11.2176
ಪೂರ್ಣ	-11.218
▁spiritual	-11.2183
नै	-11.2183
▁उसमें	-11.2186
▁ಆಕೆ	-11.2187
▁blame	-11.219
▁रहें	-11.219
▁bilateral	-11.2191
▁singer	-11.2193
▁goods	-11.2194
স্থা	-11.2194
▁प्रियंका	-11.2197
▁output	-11.2197
▁पर्याप्त	-11.2198
hit	-11.2198
▁ਪਾਕਿਸਤਾਨ	-11.2198
▁shoes	-11.2199
தள	-11.2199
પૂર્ણ	-11.22
▁گیا	-11.2202
CI	-11.2203
६	-11.2205
▁software	-11.2205
▁ਸਰੀਰ	-11.2206
▁ट्रंप	-11.2206
▁maybe	-11.2206
▁advised	-11.2207
▁ਪੁਲਸ	-11.2209
▁colours	-11.2211
▁नरेन्द्र	-11.2212
▁यश	-11.2214
▁operating	-11.2214
▁ગરમ	-11.2216
▁অথবা	-11.2216
▁शांत	-11.2218
ஸ்ட	-11.2219
ிருக்கிறது	-11.222
ಕರು	-11.222
▁अर्थव्यवस्था	-11.2221
▁வைக்க	-11.2222
ப்படுகின்றன	-11.2224
▁Jaya	-11.2224
▁described	-11.2224
▁সবকিছু	-11.2226
▁Janata	-11.2229
▁surprising	-11.2231
well	-11.2231
▁दिसत	-11.2231
▁strike	-11.2233
سل	-11.2233
▁bear	-11.2236
▁ಅಲ್ಲದೆ	-11.2238
▁Consider	-11.2238
▁સારા	-11.2238
▁destroyed	-11.2238
ਸੂ	-11.2241
www	-11.2241
▁গল্প	-11.2241
pir	-11.2242
▁ਸਾਰੀਆਂ	-11.2242
ीच्या	-11.2242
▁ઉપલબ્ધ	-11.2243
पिता	-11.2244
न्न	-11.2245
▁survey	-11.2246
▁अजय	-11.2246
▁institution	-11.2246
▁danger	-11.2247
दो	-11.2248
▁હતાં	-11.2248
চিত্র	-11.2249
ಪರ್	-11.2249
▁કરવો	-11.2249
▁कोलकाता	-11.225
▁Saif	-11.2251
▁प्रभावी	-11.2252
▁கொடுக்க	-11.2255
▁यावर	-11.2255
▁Jag	-11.2256
▁PTI	-11.2259
ಎಫ್	-11.2259
ૂર	-11.226
▁trip	-11.2261
▁Men	-11.2262
▁शिक्षण	-11.2262
▁ਕੋਸ਼ਿਸ਼	-11.2262
ಹೊ	-11.2263
▁ಇವು	-11.2263
▁तनाव	-11.2264
▁union	-11.2266
▁signs	-11.2266
▁overall	-11.2267
किंग	-11.2268
400	-11.2268
▁सुनवाई	-11.2268
▁balance	-11.2269
▁पाठ	-11.227
▁ODI	-11.227
▁ঘটনার	-11.227
▁flag	-11.2276
▁Kamal	-11.2279
▁slow	-11.2279
▁ચૂંટણી	-11.228
મ્	-11.2281
જીત	-11.2281
▁ઓળખ	-11.2283
▁ફિલ્મમાં	-11.2286
▁नवी	-11.2287
ाधिकार	-11.2288
ੂਰ	-11.2288
েস	-11.229
▁एक्ट्रेस	-11.2292
ांक	-11.2295
▁bed	-11.2295
▁रखना	-11.2298
▁News	-11.23
▁Guru	-11.23
▁সংস্থা	-11.2302
▁जिम्मेदारी	-11.2303
ષ્	-11.2304
▁સ્થળ	-11.2304
▁நிறைய	-11.2305
▁ತೀವ್ರ	-11.2306
੍ਰ	-11.2306
▁कक्षा	-11.2308
▁आश्चर्य	-11.2313
भार	-11.2314
वून	-11.2319
▁regularly	-11.232
स्ता	-11.2321
▁everyday	-11.2322
▁পরিবার	-11.2322
ணை	-11.2324
▁राजनाथ	-11.2325
▁awards	-11.2327
८	-11.2328
تر	-11.233
▁ವೇಳೆ	-11.233
લ્ડ	-11.2332
app	-11.2332
▁அளவு	-11.2334
▁seeing	-11.2334
▁terror	-11.2336
▁सोड	-11.2337
▁सप्ताह	-11.2338
▁highway	-11.2338
▁कहां	-11.2339
▁Sikh	-11.234
▁দেয়া	-11.234
▁ತುಂಬ	-11.2342
▁ಸತ್ಯ	-11.2346
▁ભારતમાં	-11.2346
▁designed	-11.2347
ರಾದ	-11.2348
▁ચોક્કસ	-11.235
br	-11.235
▁चुन	-11.2351
▁tree	-11.2352
তেই	-11.2354
▁peaceful	-11.2355
ળો	-11.2356
যোগ	-11.2356
கர்	-11.2356
How	-11.2357
▁ಸಾಧ್ಯವಾಗ	-11.2358
▁पर्यटन	-11.2359
▁ಬಂಧಿಸ	-11.2359
▁કંપની	-11.236
ವಾಗಿರುತ್ತದೆ	-11.236
ਤਾਂ	-11.2361
▁डाय	-11.2361
एससी	-11.2361
ino	-11.2364
▁squad	-11.2364
▁ಮುಂದಿನ	-11.2366
▁देंगे	-11.2366
படுத்த	-11.2367
▁generally	-11.2367
▁સૌ	-11.2367
▁कायम	-11.2368
▁input	-11.2368
▁அடுத்த	-11.237
▁ಮಾಡಬೇಕು	-11.2372
▁selection	-11.2372
ਟੋ	-11.2375
rag	-11.2375
▁instructions	-11.2376
गन	-11.2381
▁advantages	-11.2381
▁surprise	-11.2382
▁claims	-11.2384
ஜா	-11.2388
▁schemes	-11.2389
▁எதுவும்	-11.239
▁વધ	-11.2391
▁loan	-11.2392
ಟು	-11.2393
▁यांना	-11.2395
▁জানে	-11.2395
माण	-11.2397
▁crash	-11.2399
▁carrying	-11.24
▁aspects	-11.2402
டே	-11.2403
▁पाच	-11.2403
▁ગાંધી	-11.2404
▁anniversary	-11.2404
▁ચર્ચા	-11.2404
▁சமூக	-11.2406
ाप	-11.2408
য়ো	-11.2409
িল	-11.241
▁ಮನೆ	-11.241
▁আছি	-11.2411
யாளர்	-11.2412
તાં	-11.2413
▁রেখে	-11.2413
tec	-11.2414
▁मानसिक	-11.2415
▁transform	-11.2415
▁கைது	-11.2419
னு	-11.242
▁ill	-11.2422
▁terrorist	-11.2423
શ્ર	-11.2423
▁બીજી	-11.2424
▁جس	-11.2425
vel	-11.2426
•	-11.2426
▁ಆತನ	-11.2426
ाह	-11.2427
▁करण्याची	-11.2431
mun	-11.2431
▁व्यापक	-11.2432
नू	-11.2435
आप	-11.2437
▁ಮಾದರಿ	-11.2441
▁regional	-11.2442
1,000	-11.2444
▁manufacturer	-11.2444
एसपी	-11.2446
▁Tax	-11.2447
▁यामध्ये	-11.2447
▁initial	-11.2447
▁glass	-11.2449
▁ऐप	-11.2451
▁नोट	-11.2452
hang	-11.2452
▁नियमित	-11.2453
eastern	-11.2454
▁ಬಳಕೆ	-11.2455
েশন	-11.2455
rating	-11.2456
ਚੇ	-11.2459
ऑ	-11.2459
iff	-11.2461
ಂದ್ರ	-11.2462
डब्ल्यू	-11.2463
pho	-11.2464
ಗೂ	-11.2468
ாலும்	-11.2468
▁मिलते	-11.2469
▁Mas	-11.2469
▁sum	-11.2471
▁সবার	-11.2471
दास	-11.2471
Captain	-11.2472
टेक	-11.2478
फ्ट	-11.2479
▁इंस्टाग्राम	-11.2479
▁बनने	-11.2481
ಲಾಗಿತ್ತು	-11.2482
▁submit	-11.2482
▁વીડિયો	-11.2485
کر	-11.2485
▁स्थानों	-11.2485
▁Temple	-11.2485
▁shocked	-11.2487
▁tension	-11.2489
▁ಠಾಣೆಯಲ್ಲಿ	-11.2489
মত	-11.249
▁Manmohan	-11.2492
▁લાભ	-11.2492
▁લોકોને	-11.2494
▁succeed	-11.2495
▁அனைத்தும்	-11.2497
ੰਤ	-11.2497
▁कुटुंब	-11.2497
▁உயர்	-11.2497
▁প্রমাণ	-11.2499
▁killing	-11.2501
ড়ি	-11.2502
▁नियुक्त	-11.2502
ধর	-11.2503
▁போலீசார்	-11.2504
▁provisions	-11.2505
▁कारणों	-11.2505
▁raise	-11.2506
▁Mat	-11.2506
▁ಒಟ್ಟು	-11.2507
▁Mur	-11.2507
US	-11.2509
▁रिकॉर्ड	-11.251
सुर	-11.251
▁helpful	-11.251
▁functions	-11.2514
યલ	-11.2515
▁ਕਿਉਂ	-11.2518
ાયા	-11.252
▁guest	-11.2521
acy	-11.2522
ਧੀ	-11.2525
▁दोघां	-11.2529
▁Gen	-11.2529
ત્વ	-11.2535
▁postmortem	-11.2538
craft	-11.2539
▁topic	-11.254
▁zone	-11.254
▁smile	-11.2541
▁conducting	-11.2541
▁ਬੱਚਿਆਂ	-11.2543
▁Tan	-11.2544
▁मुलां	-11.2544
யி	-11.2545
▁ਦਿੱਤੇ	-11.255
▁પહોંચી	-11.2551
▁coffee	-11.2551
देखील	-11.2552
च्छ	-11.2553
▁ದೇಶದ	-11.2554
▁করেছিল	-11.2557
ાઉ	-11.2557
▁खरे	-11.256
▁हटा	-11.256
▁பாட	-11.2561
ವಾಗಿರ	-11.2561
મ્પ	-11.2562
எஸ்	-11.2562
ters	-11.2563
▁Dhawan	-11.2565
▁ਹਾਲਾਂਕਿ	-11.2565
uff	-11.2565
ीज	-11.2565
▁permanent	-11.2566
▁button	-11.2566
પિ	-11.2566
गम	-11.2568
ವಾಗುತ್ತದೆ	-11.2568
▁कॉल	-11.2569
▁referred	-11.257
સ્પ	-11.257
▁ವಿದ್ಯಾರ್ಥಿ	-11.2571
AB	-11.2572
ফেল	-11.2573
▁मुद्दा	-11.2574
▁ਪੱਧਰ	-11.2574
ट्री	-11.2575
iti	-11.2575
▁images	-11.2575
શું	-11.2578
द्य	-11.2579
اس	-11.2579
▁ਪ੍ਰਦੇਸ਼	-11.2581
▁ಮುಂದೆ	-11.2581
▁गोवा	-11.2581
েল	-11.2584
▁breath	-11.2585
▁trees	-11.2586
▁Local	-11.2587
▁engaged	-11.2588
▁காட்ட	-11.259
ওয়ে	-11.259
▁institute	-11.2591
▁Kovind	-11.2594
aut	-11.2596
▁ধারণা	-11.2597
ைக்	-11.2597
ched	-11.2597
▁এসে	-11.2597
▁semi	-11.2599
▁Olympics	-11.2603
▁पर्याय	-11.2603
▁चीनी	-11.2604
▁finance	-11.2605
▁நிதி	-11.2609
उन	-11.2617
ਿਰ	-11.2617
▁ਜਿਨ੍ਹਾਂ	-11.2617
ada	-11.2619
માર્ગ	-11.2619
▁Sir	-11.2621
▁Ben	-11.2624
▁ಸಾಮಾಜಿಕ	-11.2625
▁हालात	-11.2625
ித்த	-11.2625
ಕ್ಕಿಂತ	-11.2625
▁cards	-11.2627
ੱਧ	-11.2631
ೊಂದಿಗೆ	-11.2632
▁அழ	-11.2633
▁actions	-11.2633
மின்	-11.2635
▁Brazil	-11.2636
कृष्ण	-11.2637
▁ನಿರ್ಧಾರ	-11.2638
▁Project	-11.2639
িকা	-11.2639
▁পেয়ে	-11.264
▁रखते	-11.264
▁Far	-11.2643
स्टर	-11.2644
▁ginger	-11.2647
▁ஆரம்ப	-11.2648
▁Blood	-11.2648
স্প	-11.2649
બલ	-11.2651
gene	-11.2652
eshwar	-11.2653
ظ	-11.2654
▁મુજબ	-11.2654
▁आहार	-11.2658
ಟ್ಟಿ	-11.2659
▁Sc	-11.266
▁பிற	-11.2664
گر	-11.2665
ವರಿಗೆ	-11.2665
कन	-11.2665
▁Karan	-11.2668
▁calculate	-11.2668
▁জেলা	-11.267
▁অতি	-11.267
▁ಅವನು	-11.267
▁ओळख	-11.2671
▁ರಾಷ್ಟ್ರೀಯ	-11.2672
▁ಇವರ	-11.2672
yl	-11.2673
▁investigations	-11.2675
▁Mad	-11.2676
def	-11.2677
▁finished	-11.2677
don	-11.2677
ின்றன	-11.2678
▁ಪರಿಗಣಿಸ	-11.2678
▁இதுவரை	-11.2679
▁2000	-11.268
▁sale	-11.268
▁Padukone	-11.268
ved	-11.268
SF	-11.2681
▁allows	-11.2682
graduate	-11.2682
িন	-11.2683
ਫਰ	-11.2683
কল	-11.2685
▁sold	-11.2686
dri	-11.2687
▁ম্যা	-11.2687
▁guests	-11.2688
▁धार्मिक	-11.2689
▁spirit	-11.2689
▁ರಚಿಸ	-11.269
▁கருத்து	-11.2692
▁मेहनत	-11.2692
graph	-11.2697
▁imposed	-11.2698
▁ਪੇਸ਼	-11.2698
▁बजट	-11.27
ரெ	-11.27
▁Ge	-11.2701
▁अति	-11.2701
▁ಸಂಪೂರ್ಣ	-11.2701
2)	-11.2702
▁football	-11.2704
ila	-11.2704
ੇਗਾ	-11.2704
▁recommendations	-11.2708
len	-11.2709
▁হইল	-11.2711
টের	-11.2714
লাই	-11.2716
▁White	-11.2716
▁बनाई	-11.2716
▁கீழ்	-11.2719
▁ચાલુ	-11.2719
▁પહેલાં	-11.2721
▁खिलाड़ियों	-11.2724
▁தலைவர்	-11.2726
▁David	-11.2726
▁ಬ್ಯಾ	-11.2726
▁વધી	-11.2727
ਟਿਕ	-11.2731
▁detailed	-11.2732
स्वामी	-11.2732
▁stomach	-11.2733
▁आदमी	-11.2734
▁Plan	-11.2735
▁Price	-11.2736
मुझे	-11.2737
ಆ	-11.2737
▁ઉત્તર	-11.2738
▁collect	-11.2739
▁तीसरे	-11.2739
SI	-11.2743
ਜਰ	-11.2748
ஐ	-11.2748
லும்	-11.275
ૅ	-11.2751
▁કરવી	-11.2755
▁કંઈ	-11.2756
▁தேசிய	-11.2756
▁शायद	-11.2759
्ल	-11.2759
▁ஒரே	-11.2761
யுடன்	-11.2762
▁বয়স	-11.2762
▁solutions	-11.2764
▁मिलता	-11.2764
▁Opposition	-11.2767
▁செல்ல	-11.2767
ायत	-11.277
▁भगवान	-11.2771
▁ruling	-11.2771
▁ಸಾಮಾನ್ಯವಾಗಿ	-11.2771
▁पहिल्या	-11.2771
▁செயல்	-11.2774
▁मैदान	-11.2775
فر	-11.2775
▁corruption	-11.2776
▁કહી	-11.2779
▁ਨਵੀਂ	-11.2779
▁shouldn	-11.278
▁planned	-11.2783
▁advance	-11.2783
▁occurs	-11.2785
ੀਨ	-11.2785
▁entered	-11.2787
হত	-11.2788
▁10,000	-11.2789
ठी	-11.279
वं	-11.279
▁डाउनलोड	-11.2791
ੱਗ	-11.2793
▁છતાં	-11.2793
▁दम	-11.2795
▁பதிவு	-11.2801
▁त्यांचे	-11.2803
▁ஆக	-11.2803
▁household	-11.2806
▁Canada	-11.2806
ंवर	-11.2807
▁बीमारी	-11.2808
▁annual	-11.2808
▁agencies	-11.2808
▁स्वस्थ	-11.2809
स्‍ट	-11.2811
▁Games	-11.2812
▁tourism	-11.2813
▁अध्यक्षता	-11.2814
▁என்னை	-11.2815
▁extend	-11.2818
▁stable	-11.282
▁cook	-11.282
▁વસ્તુ	-11.2824
ವನ	-11.2824
▁साबित	-11.2824
▁upset	-11.2829
▁थोड़ा	-11.283
▁Mohan	-11.2832
▁મહત્વપૂર્ણ	-11.2832
▁emb	-11.2832
ept	-11.2834
▁wounded	-11.2834
▁குழு	-11.2835
आईसी	-11.2836
▁स्टेट	-11.2837
car	-11.2839
);	-11.2839
path	-11.284
▁लाने	-11.2842
ন্ন	-11.2843
ध्य	-11.2843
▁நடக்க	-11.2844
▁individuals	-11.2845
▁सुना	-11.2845
ਯਾ	-11.2845
லம்	-11.2851
ગ્રામ	-11.2851
▁जमीन	-11.2853
▁ਸਿੱਖਿਆ	-11.2853
ற்	-11.2856
▁उद्घाटन	-11.2856
gro	-11.2856
▁ਸਬੰਧੀ	-11.2858
▁जवान	-11.2862
ঙ্ক	-11.2863
நீ	-11.2864
▁connectivity	-11.2865
ज्य	-11.2865
▁জানিয়েছেন	-11.2867
▁Human	-11.2867
▁दबाव	-11.2868
▁ਸਥਿਤੀ	-11.2868
▁आयुक्त	-11.2871
▁प्रसाद	-11.2872
▁প্রত্যেক	-11.2875
▁everywhere	-11.2877
▁अजून	-11.2878
▁ಪಟ್ಟಿ	-11.2879
ಂಥ	-11.2879
▁ಎಂಬುದು	-11.288
▁Malayalam	-11.288
▁luck	-11.2881
▁8-	-11.2881
▁obtained	-11.2882
▁زیادہ	-11.2882
مر	-11.2885
▁দাবি	-11.2887
▁श्रेणी	-11.2888
▁पुत्र	-11.2889
▁রোগ	-11.2889
اح	-11.289
▁त्यावर	-11.2891
দূর	-11.2891
▁ਮਾਮਲਾ	-11.2892
ಗ್ಗ	-11.2892
▁eventually	-11.2892
ಿಸಿದರು	-11.2892
▁நேரம்	-11.2892
জনক	-11.2895
▁ಮಾಡಿದ್ದಾರೆ	-11.2896
▁সঠিক	-11.2898
▁dedicated	-11.2903
▁দায়িত্ব	-11.2903
▁चीज	-11.2905
▁Thanks	-11.2907
्वा	-11.2908
volt	-11.291
▁questioned	-11.291
CE	-11.2911
ਵਾਦ	-11.2912
ਿਲ	-11.2915
▁liquid	-11.2916
सीए	-11.2916
▁differences	-11.2918
ಾಪ	-11.2923
▁औषध	-11.2923
▁सारा	-11.2923
ट्रा	-11.2923
ose	-11.2923
लाई	-11.2924
▁पं	-11.2926
▁hall	-11.2926
▁scientists	-11.2927
▁તેનું	-11.2927
▁હોવા	-11.2928
ाब	-11.293
▁Das	-11.2931
▁processes	-11.2932
▁smart	-11.2933
জিত	-11.2935
▁ಒಂದ	-11.2937
▁blast	-11.2937
ਥਾ	-11.294
▁ट्रक	-11.2941
▁distribution	-11.2944
▁perfectly	-11.2946
▁দুজন	-11.2947
▁দিল	-11.2949
ਵਾਈ	-11.2949
ਗ੍ਰ	-11.2949
ચુ	-11.2949
NI	-11.295
▁Kapil	-11.295
▁cars	-11.2951
शर	-11.2951
▁राज्यपाल	-11.2952
इक	-11.2952
ುತ್ತೀರಿ	-11.2952
▁سب	-11.2952
शासित	-11.2954
ம்பு	-11.2954
▁મહિલા	-11.2955
▁पुनर्	-11.2957
▁gonna	-11.2957
ಗೊಳ್ಳ	-11.2958
▁ਕਿਸਾਨਾਂ	-11.2959
▁तत्काल	-11.2959
▁इंतजार	-11.296
▁ಅಭ್ಯರ್ಥಿ	-11.296
▁lemon	-11.296
▁તરફ	-11.2962
▁उल्लंघन	-11.2963
▁அப்போது	-11.2964
▁आती	-11.2966
▁ಈಗಾಗಲೇ	-11.2967
poli	-11.2968
▁exact	-11.297
▁3:	-11.2971
પ્રા	-11.2971
ject	-11.2971
▁125	-11.2972
▁आएंगे	-11.2972
▁Ravi	-11.2974
▁ઘર	-11.2974
▁मौका	-11.2975
▁পাঁচ	-11.2975
▁Jio	-11.2976
▁interior	-11.2978
▁ભૂલ	-11.2978
▁जम	-11.2978
▁தனது	-11.2978
▁electronic	-11.298
util	-11.2981
▁স্থানীয়	-11.2982
मीर	-11.2982
▁fix	-11.2983
▁ਯੋਜਨਾ	-11.2984
▁Prakash	-11.2987
घर	-11.2987
▁પ્રકાર	-11.299
oh	-11.2992
▁बल्लेबाज	-11.2992
ಳೆಯ	-11.2994
▁Him	-11.2995
▁आण	-11.3001
▁बचा	-11.3002
▁commit	-11.3003
▁Sunil	-11.3003
▁सैन्य	-11.3006
ਪ੍ਰ	-11.3008
▁guilty	-11.3008
▁ایس	-11.3008
ਸ਼ਿ	-11.3009
▁meetings	-11.3009
▁ವಿವರ	-11.301
2,000	-11.3012
▁घेतली	-11.3013
▁selfie	-11.3015
மார்	-11.3017
▁நீர்	-11.302
ஃப	-11.3021
▁instance	-11.3021
°	-11.3021
▁যেখানে	-11.3022
சொ	-11.3022
Te	-11.3023
ography	-11.3023
▁River	-11.3025
ುವಿಕೆ	-11.3025
▁একা	-11.3026
திய	-11.3027
ility	-11.3028
गुरु	-11.3034
▁दाम	-11.3035
▁ಆಸ್ಪತ್ರೆಗೆ	-11.3037
▁admit	-11.3037
क्टर	-11.3038
31	-11.304
▁violation	-11.304
பதி	-11.3042
▁सेवाओं	-11.3042
▁respective	-11.3043
ાન	-11.3043
बीर	-11.3044
▁परत	-11.3045
क्री	-11.3046
பிரி	-11.3047
ند	-11.305
ंगल	-11.3053
▁জবাব	-11.3055
சர்	-11.3055
भाग	-11.3057
▁watching	-11.3058
ித்து	-11.3059
▁দীর্ঘ	-11.3061
பூர்	-11.3061
▁তুলে	-11.3061
chair	-11.3062
क्त	-11.3062
▁উভয়	-11.3064
Our	-11.3065
▁sisters	-11.3066
▁அதே	-11.3067
▁Well	-11.3069
▁टिप्पणी	-11.3069
புற	-11.307
બંધ	-11.307
▁विधेयक	-11.3071
▁येईल	-11.3071
▁श्रम	-11.3073
▁ઇન્	-11.3074
▁ખબર	-11.3074
▁representatives	-11.3078
▁despite	-11.3078
ಬಲ್	-11.308
▁ಸೂಚಿಸ	-11.3081
▁गठन	-11.3081
▁जुट	-11.3082
▁markets	-11.3082
▁Cho	-11.3082
▁buildings	-11.3082
કેટ	-11.3083
▁ગંભીર	-11.3083
▁સતત	-11.3084
▁lake	-11.3089
▁motor	-11.3089
▁insurance	-11.309
▁honest	-11.3092
CL	-11.3094
▁Jan	-11.3095
▁नका	-11.3096
matic	-11.3098
நீதிமன்ற	-11.3099
▁सत्ता	-11.3101
▁मान्यता	-11.3102
▁প্রভাব	-11.3103
સુ	-11.3105
▁pollution	-11.3105
▁ಇಬ್ಬರು	-11.3111
▁என்றும்	-11.3112
▁आसपास	-11.3116
▁ಹಂತ	-11.3116
▁habit	-11.3116
بھ	-11.3118
▁केन्द्र	-11.312
▁formation	-11.3121
▁pace	-11.3122
▁सगळे	-11.3123
▁खुलासा	-11.3124
রাই	-11.3124
▁Nitin	-11.3125
ಲಾದ	-11.3126
▁abroad	-11.3126
▁યોજના	-11.3126
▁arrangements	-11.3127
▁reside	-11.3127
▁awareness	-11.313
▁હાલમાં	-11.313
চ্ছি	-11.3132
रोध	-11.3134
▁sport	-11.3135
western	-11.3137
▁સોશિયલ	-11.3137
समोर	-11.3138
खर	-11.3138
▁बराबर	-11.3144
▁વધારો	-11.3144
▁লিখ	-11.3147
▁components	-11.3147
▁bridge	-11.3149
ટ્સ	-11.315
▁उपकरण	-11.315
थे	-11.3152
▁1000	-11.3153
लेली	-11.3153
লিয়া	-11.3154
▁shares	-11.3157
illa	-11.3158
विरोधात	-11.3158
▁અનુ	-11.3159
▁সরকারের	-11.316
▁इन्हें	-11.3161
ઠા	-11.3161
ਦੂ	-11.3161
▁करो	-11.3163
▁পারবেন	-11.3165
સ્ટો	-11.3166
ರಾಷ್ಟ್ರ	-11.3166
▁பாதுகாப்பு	-11.3166
▁परन्तु	-11.3166
▁observed	-11.3166
१	-11.3166
▁ম্যাচ	-11.3167
▁ਸੱ	-11.3167
पुरा	-11.3168
▁ग्राहक	-11.3168
விய	-11.3168
▁अनुरोध	-11.3169
▁understood	-11.3169
्वे	-11.3169
ੌਰ	-11.3169
ಕೃತ	-11.317
▁toilet	-11.317
▁स्वतः	-11.3171
प्ट	-11.3172
▁ಸದ್ಯ	-11.3172
▁পরিবারের	-11.3173
▁बैठ	-11.3174
▁सोनिया	-11.3176
▁covered	-11.3178
▁मीडियावर	-11.3179
▁volume	-11.3182
▁आम्हाला	-11.3183
RI	-11.3183
್ತಿ	-11.3183
प्रकरणी	-11.3183
▁सजा	-11.3184
▁subsequently	-11.3184
मेन	-11.3185
லு	-11.3186
ane	-11.3187
▁इनकार	-11.3188
▁દેવ	-11.3189
▁सुबह	-11.319
osis	-11.3191
▁ಶಿಕ್ಷಣ	-11.3192
▁प्रतिबंध	-11.3192
▁orders	-11.3193
▁1:	-11.3194
▁classes	-11.3195
▁recovery	-11.3196
▁spoken	-11.3196
pre	-11.3197
▁மோடி	-11.3197
▁भवन	-11.3201
ર્ન	-11.3202
▁ਖੁਸ਼	-11.3202
पिक	-11.3204
▁conflict	-11.3205
▁ਦੋਵੇਂ	-11.3212
ಲಿದ್ದಾರೆ	-11.3215
▁हों	-11.3216
▁ದಾಖಲಾಗಿದೆ	-11.3217
▁উল্লেখ	-11.3217
▁cancelled	-11.3217
ಂಪ	-11.3218
▁तोड़	-11.3218
ಪೂ	-11.3218
▁Shiva	-11.3219
▁آئی	-11.322
ीम	-11.3221
▁ದಾಖಲಿಸ	-11.3222
▁pattern	-11.3223
▁घटने	-11.3225
▁web	-11.3226
▁ಫೋನ್	-11.3227
▁meters	-11.323
▁சொன்ன	-11.323
ically	-11.3232
▁faced	-11.3233
▁Sai	-11.3235
▁पवार	-11.3235
▁ਗਿਣਤੀ	-11.3236
घात	-11.3238
▁Pur	-11.3238
▁lakhs	-11.324
▁मैचों	-11.3242
களுக்கும்	-11.3243
▁enable	-11.3244
▁ਤਹਿਤ	-11.3246
ளா	-11.3247
▁combine	-11.3247
▁পান	-11.3248
▁male	-11.3249
ਦੀਆਂ	-11.3249
▁Amazon	-11.325
▁valid	-11.3254
▁लेते	-11.3254
▁ರಾಜಕೀಯ	-11.3256
▁Couldn	-11.3257
▁Rajiv	-11.3258
▁நடந்து	-11.3259
▁Gar	-11.3259
▁યાદ	-11.326
▁ನಾನ	-11.3262
▁suit	-11.3265
▁एकत्र	-11.3267
▁ભૂમિકા	-11.3268
थी	-11.3268
▁ਕਾਫ਼ੀ	-11.3269
कानूनी	-11.3269
2.5	-11.327
િયો	-11.3271
▁ಗೊತ್ತ	-11.3271
ਚੀ	-11.3272
Go	-11.3273
rang	-11.3273
▁નજીક	-11.3273
ics	-11.3274
▁flight	-11.3275
▁medication	-11.3276
रिस	-11.3277
▁manager	-11.328
▁पूछा	-11.3281
ર્જ	-11.3282
▁cycle	-11.3284
▁તેલ	-11.3284
▁ಮಧ್ಯ	-11.3284
नार	-11.3286
▁ਆਉਣ	-11.3287
▁காரணம்	-11.3287
णं	-11.3288
ಬಿಡ	-11.3289
▁ਉਤਪਾਦ	-11.329
ੇਸ਼ਨ	-11.329
▁முக்கியமான	-11.3291
RT	-11.3291
▁अर्जुन	-11.3292
▁ملک	-11.3292
▁lines	-11.3293
▁आरोपित	-11.3293
▁2010	-11.3295
DS	-11.3295
▁पावर	-11.3296
▁व्यक्तिगत	-11.3299
ப்படவில்லை	-11.3299
Sa	-11.3299
ट्रे	-11.3299
कारक	-11.33
▁calls	-11.3301
▁bedroom	-11.3302
▁घरेलू	-11.3303
▁division	-11.3304
▁पाकिस्तानी	-11.3304
They	-11.3306
ರಾಮ	-11.3306
▁উদ্	-11.3306
▁honey	-11.3306
▁લગ્ન	-11.3307
▁deliver	-11.3308
▁প্যা	-11.331
ાસ	-11.331
▁ಯಾರು	-11.3311
প্ত	-11.3312
বাহ	-11.3312
▁रिजल्ट	-11.3313
▁प्रमाणात	-11.3314
▁interact	-11.3315
▁தண்ணீர்	-11.3315
▁confident	-11.3319
বন্ধ	-11.3327
riot	-11.3329
ेबल	-11.3329
▁prison	-11.3331
▁emotional	-11.3332
▁ಗಾಂಧಿ	-11.3335
▁মধ্য	-11.3335
களைக்	-11.3336
▁बचाव	-11.3337
▁অভিজ্ঞতা	-11.3337
▁ਪਹਿਲੀ	-11.3337
▁deposit	-11.3339
▁situated	-11.334
ದಂತೆ	-11.334
▁ನಂಬ	-11.3342
▁Sachin	-11.3343
ਟ੍ਰ	-11.3344
▁ಸಾಧ್ಯ	-11.3346
▁rapidly	-11.3348
साई	-11.3349
▁pair	-11.3351
▁ਕਿਸਮ	-11.3352
▁ವಿನ್ಯಾಸ	-11.3352
ਫੀ	-11.3352
▁গিয়েছে	-11.3353
▁महामारी	-11.3354
gue	-11.3354
▁શ્રેષ્ઠ	-11.3359
▁எண்ண	-11.336
ಅಮೆರಿಕ	-11.336
▁province	-11.3363
▁awesome	-11.3364
900	-11.3366
▁ಒಂದೇ	-11.3367
ಕೆಟ್	-11.3367
▁নামে	-11.3367
▁ಹೊಂದಿರುವ	-11.3368
ક્લ	-11.3368
▁স্ত্রী	-11.3369
▁Sidhu	-11.3369
▁beyond	-11.337
▁ಅಧಿಕಾರಿ	-11.337
ica	-11.3371
dr	-11.3371
▁पूजा	-11.3373
ீடு	-11.3373
▁ವರ್ಷ	-11.3374
▁अज्ञात	-11.3374
▁ಹಿಂದೆ	-11.3375
▁engineering	-11.3375
wai	-11.3377
વાન	-11.3377
ाद	-11.3378
igh	-11.3378
▁crops	-11.3379
kot	-11.3379
▁ਜਿਵੇਂ	-11.338
ਨਰ	-11.3384
▁garden	-11.3385
மாதிரி	-11.3386
▁demands	-11.3388
▁rare	-11.3389
vir	-11.3391
যোগ্য	-11.3391
▁மனித	-11.3395
▁स्थापना	-11.3398
▁contribute	-11.3398
▁unusual	-11.3399
▁Abhishek	-11.34
ுதல	-11.34
▁Moh	-11.3402
TI	-11.3402
▁ਸਵਾਲ	-11.3404
▁ਜ਼ਰੂਰਤ	-11.3404
▁ರಕ್ತ	-11.3405
ுக்கும்	-11.3405
शिप	-11.3408
▁काहीच	-11.341
▁ಎಷ್ಟು	-11.3412
ians	-11.3413
ಕಾಲ	-11.3413
▁नागरिकों	-11.3414
ಿರುತ್ತದೆ	-11.3416
til	-11.3418
یت	-11.3418
▁ਜਿੱਤ	-11.3418
▁ਅੱਜ	-11.3419
February	-11.3419
▁طور	-11.3419
ಲಾಗುತ್ತಿದೆ	-11.3421
क्वा	-11.3422
hip	-11.3422
▁hill	-11.3422
থি	-11.3424
بی	-11.3426
▁परेशानी	-11.3426
ಗೇ	-11.3428
▁इलेक्ट्र	-11.3429
▁மட்டும்	-11.3432
्वी	-11.3433
▁आलं	-11.3434
▁મુખ્યમંત્રી	-11.3435
▁Mun	-11.3435
চু	-11.3437
▁System	-11.3438
▁cream	-11.344
▁ঘুম	-11.3446
▁combined	-11.3448
▁यासाठी	-11.3449
िस्ट	-11.3451
▁ಸುಂದರ	-11.3452
▁দাম	-11.3453
আন	-11.3454
▁museum	-11.3454
मिन	-11.3455
▁এসেছে	-11.3456
▁அளிக்க	-11.3457
▁ਚੱਲ	-11.3458
নির	-11.3458
▁कोटी	-11.3458
▁दौरा	-11.3461
ંધ	-11.3462
▁भीड़	-11.3462
▁आपने	-11.3465
▁जरूर	-11.3466
कर्ता	-11.3466
ಕಲ	-11.3467
▁জায়গা	-11.3471
▁suffer	-11.3472
▁pleasant	-11.3474
▁तिला	-11.3476
▁survived	-11.3477
▁असू	-11.348
▁भट्ट	-11.348
धीरे	-11.348
वां	-11.3481
ific	-11.3481
cle	-11.3482
▁யார்	-11.3483
▁ದೆಹಲಿ	-11.3485
▁literature	-11.3485
head	-11.3485
▁হাতে	-11.3486
▁સંપૂર્ણ	-11.3486
▁paste	-11.3486
▁aid	-11.3487
SR	-11.3488
વુ	-11.3489
▁দুর্	-11.349
আমেরিকা	-11.349
▁ক্ষমতা	-11.3491
১০	-11.3491
▁ਜਾਵੇਗੀ	-11.3492
una	-11.3493
▁layer	-11.3493
ಗಳೂ	-11.3495
▁ইতিহাস	-11.3498
▁রাখতে	-11.3498
hri	-11.3499
▁Does	-11.35
▁organisations	-11.35
▁त्याच	-11.3501
▁ठाकरे	-11.3501
▁ತಿಳಿಸ	-11.3502
▁ग्रुप	-11.3502
▁Shahid	-11.3503
▁স্কুল	-11.3503
▁আমিও	-11.3504
vid	-11.3508
▁કેટલીક	-11.3509
▁mention	-11.351
▁thousands	-11.351
▁attacked	-11.3511
▁यावेळी	-11.3511
ೆಯ	-11.3512
▁कल्पना	-11.3512
▁পাশাপাশি	-11.3513
▁ਪੱ	-11.3513
▁Diwali	-11.3514
▁खूब	-11.3514
▁characteristics	-11.3514
ામાં	-11.3514
▁lived	-11.3514
ole	-11.3516
ಗಣ	-11.3517
▁ಆಧಾರ	-11.3518
ਵੇਂ	-11.3519
▁Navy	-11.352
ਹੀ	-11.352
▁failure	-11.3521
▁ಇರುತ್ತದೆ	-11.3521
▁தெரியவில்லை	-11.3521
▁laid	-11.3526
▁childhood	-11.3526
▁ਸ਼ਾਨਦਾਰ	-11.3527
▁आयु	-11.3527
▁যারা	-11.3529
ਐੱਮ	-11.353
த்துக்	-11.3532
▁নির্দেশ	-11.3532
▁கணக்க	-11.3534
▁element	-11.3535
▁उत्पन्न	-11.3535
▁Engineering	-11.3537
▁Right	-11.3538
▁પડી	-11.3538
পত্র	-11.3539
ब्ब	-11.354
ிப்ப	-11.3541
▁ਠੀਕ	-11.3541
▁channel	-11.3541
▁கடந்த	-11.3541
▁পুলিশের	-11.3543
▁તેનાથી	-11.3545
கூட	-11.3545
सूर	-11.3546
▁જવા	-11.3547
▁reportedly	-11.355
ண்ட்	-11.3552
▁तथ्य	-11.3553
▁farmer	-11.3553
ட்டா	-11.3556
களுடன்	-11.3557
▁chopped	-11.3558
▁बह	-11.3558
ಯಲ್ಲ	-11.3558
हून	-11.3559
▁Pandey	-11.3559
▁महिलाएं	-11.356
▁humans	-11.356
▁ஏற்படுத்த	-11.3562
mul	-11.3562
▁commission	-11.3562
▁Naidu	-11.3565
डू	-11.3565
▁suggestions	-11.3568
গি	-11.3568
▁categories	-11.3569
▁learned	-11.357
▁ਸੋਚ	-11.3571
▁discussions	-11.3571
▁दस्तावेज	-11.3571
▁পায়	-11.3571
ஜ்	-11.3573
▁installed	-11.3574
▁ਉੱਤਰ	-11.3574
▁टाक	-11.3576
க்கவும்	-11.3577
▁Ajit	-11.3578
▁ವೆಚ್ಚ	-11.3579
▁উদাহরণ	-11.358
▁સમાન	-11.3581
ਐਮ	-11.3581
નલ	-11.3581
▁addressed	-11.3582
নীতি	-11.3583
term	-11.3583
देव	-11.3583
▁Card	-11.3585
▁கல்வி	-11.3587
▁মাঝে	-11.3587
list	-11.3587
கால	-11.3587
টিতে	-11.3588
▁থেকেই	-11.3588
▁প্রদান	-11.3589
રામ	-11.359
বিজ্ঞান	-11.359
▁माजी	-11.359
▁Petrol	-11.3592
▁requested	-11.3595
▁உற்பத்தி	-11.3596
▁ਬੰਦ	-11.3597
▁difficulties	-11.3599
મેન	-11.36
▁policemen	-11.3601
FC	-11.3602
▁hundred	-11.3602
क्रि	-11.3603
▁ಕಾನೂನು	-11.3603
▁phones	-11.3604
▁thereafter	-11.3604
▁મુશ્કેલ	-11.3606
▁सरल	-11.3608
▁goals	-11.361
▁Manipur	-11.361
▁monitor	-11.3611
▁ವಾಹನ	-11.3612
मान्य	-11.3614
▁નાના	-11.3616
▁neither	-11.3618
ದೊಂದಿಗೆ	-11.3618
▁प्राकृतिक	-11.3619
এফ	-11.3619
म्म	-11.3622
▁applied	-11.3626
Be	-11.3626
▁आवास	-11.363
▁grant	-11.363
▁protests	-11.3633
PR	-11.3633
▁পুরো	-11.3634
▁ચાલી	-11.3635
▁crucial	-11.3635
▁resolved	-11.3635
Ch	-11.3638
jee	-11.3639
ટ્રા	-11.364
▁newspaper	-11.3642
▁ಆದರೂ	-11.3644
জাতি	-11.3646
દાન	-11.3648
لہ	-11.3649
ಫೈ	-11.365
श्व	-11.365
▁mainly	-11.365
▁লেখা	-11.3655
▁emergency	-11.3656
▁छानबीन	-11.3657
▁तैयारी	-11.3657
▁appears	-11.3659
ੱਡ	-11.3659
▁অবস্থিত	-11.3659
পাত	-11.366
▁કરવાનું	-11.366
लिन	-11.3661
▁કાર્યક્રમ	-11.3662
▁நிலைய	-11.3662
▁সফল	-11.3662
▁Devi	-11.3664
সাই	-11.3665
▁ಕೆಳಗಿನ	-11.3666
IM	-11.3667
▁સિસ્ટમ	-11.3667
▁Great	-11.3668
▁Motor	-11.3669
ros	-11.367
▁ಅವು	-11.3671
▁pending	-11.3671
▁மாத	-11.3671
▁Katrina	-11.3674
RE	-11.3676
▁TMC	-11.3677
▁JD	-11.3678
▁পাকিস্তান	-11.3679
கட	-11.3681
▁गरीब	-11.3681
▁nutrition	-11.3682
▁छोटी	-11.3682
eep	-11.3685
▁বাকি	-11.3685
ਅਪ	-11.3687
▁એટલે	-11.369
▁successfully	-11.369
▁शुभकामनाएं	-11.3692
र्व	-11.3694
ਸਲ	-11.3694
-3	-11.3694
্ম	-11.3695
ಸೀ	-11.3698
▁काळजी	-11.3699
▁થોડા	-11.3701
▁learnt	-11.3701
ಾಂತರ	-11.3702
▁ਦੇਖ	-11.3705
▁त्यांचा	-11.3705
ಿಸಿಕೊಳ್ಳ	-11.3706
▁outcome	-11.3707
▁संबंधों	-11.3708
اک	-11.3708
▁संपत्ति	-11.3709
fully	-11.371
▁package	-11.371
▁ਮੰ	-11.3711
▁जिन्हें	-11.3713
▁ಪದ	-11.3713
▁Youth	-11.3713
▁यात्रियों	-11.3713
▁ಮಾಜಿ	-11.3714
▁কংগ্রেস	-11.3716
▁કરવાનો	-11.3716
▁মজা	-11.3717
शास्त्र	-11.3718
▁वाहनों	-11.3719
▁लड़की	-11.372
▁மேல	-11.372
ಧ್ಯ	-11.3723
down	-11.3724
▁slowly	-11.3725
▁पहन	-11.3726
At	-11.3729
رک	-11.373
▁ધરપકડ	-11.3731
▁इसको	-11.3732
▁Fire	-11.3734
▁ಸಂಪರ್ಕ	-11.3736
▁Dad	-11.3737
শিল্প	-11.3737
▁external	-11.3739
50,000	-11.374
इंट	-11.374
▁மூல	-11.3741
▁अर्थात	-11.3743
▁இணை	-11.3743
▁gathered	-11.3744
▁सर्वोच्च	-11.3744
▁मिश्रण	-11.3748
wide	-11.3751
ಲ್ಯಾ	-11.3751
ਵਾਲ	-11.3752
▁bag	-11.3753
▁अथवा	-11.3755
▁Yoga	-11.3758
▁নেতা	-11.3759
▁130	-11.3759
▁defeated	-11.3761
▁फैल	-11.3761
▁ಎಂದ	-11.3766
▁দারুণ	-11.3766
▁जाया	-11.3768
ಿಗಳು	-11.377
▁ಆಫ್	-11.377
level	-11.3771
▁identity	-11.3773
▁ರಸ್ತೆ	-11.3774
▁association	-11.3776
PO	-11.3777
ਹਰ	-11.3779
आईटी	-11.3779
ज्	-11.378
▁खुल	-11.3781
▁अधिकतम	-11.3782
▁resolve	-11.3784
▁समुद्र	-11.3784
ਕੁ	-11.3785
▁લાંબા	-11.3786
▁સારું	-11.3786
ವಾಗಿತ್ತು	-11.3787
யர்	-11.3787
વાદ	-11.3787
জার	-11.3788
७	-11.3789
▁दोषी	-11.3789
khar	-11.3791
▁रेड	-11.3794
वरून	-11.3794
▁pick	-11.3794
▁ஏனெனில்	-11.3795
▁મૃત્યુ	-11.3798
▁shower	-11.3799
▁मिशन	-11.3799
▁funny	-11.3799
ंडी	-11.3801
▁welfare	-11.3802
▁authority	-11.3802
▁Pol	-11.3803
▁worship	-11.3803
▁आभार	-11.3804
નર	-11.3804
▁आमच्या	-11.3805
▁প্রক্রিয়া	-11.3806
▁expression	-11.3806
▁imagine	-11.3809
▁proved	-11.3809
▁Sen	-11.3809
▁ਬਚ	-11.381
▁ಏಕೆ	-11.3812
exp	-11.3814
▁dollar	-11.3814
ચર	-11.3815
IL	-11.3815
▁असर	-11.3815
▁दंड	-11.3815
ীদের	-11.3816
▁Shak	-11.3817
रूप	-11.3818
ES	-11.3818
▁react	-11.3819
▁બરાબર	-11.382
▁ಸಾಧಿಸ	-11.382
▁આનંદ	-11.3821
▁দোষ	-11.3821
गाव	-11.3822
কন	-11.3822
▁booked	-11.3822
ಿದ್ದರೆ	-11.3823
▁Watch	-11.3823
▁સ્થાન	-11.3823
▁वाच	-11.3824
▁eggs	-11.3824
▁assured	-11.3824
▁Imran	-11.3828
▁उम्र	-11.3829
▁ಸಲಹೆ	-11.3831
▁নিচে	-11.3832
Jai	-11.3833
वाला	-11.3836
খু	-11.3837
▁convenient	-11.3838
▁પાડ	-11.3838
zar	-11.3838
ிறார்	-11.3839
द्वीप	-11.3841
▁Mak	-11.3841
र्य	-11.3844
پا	-11.3845
▁ਕੰ	-11.3847
▁कोणी	-11.3847
▁Additionally	-11.385
ನಾಗ	-11.3852
▁holding	-11.3853
efficient	-11.3853
Shi	-11.3855
▁सेंटर	-11.3856
CD	-11.3857
▁Shar	-11.3858
▁stood	-11.3858
ক্ষা	-11.3859
book	-11.3859
ಗುಣ	-11.386
▁ಪ್ರಯತ್ನಿಸ	-11.3863
▁ਸਮਾਂ	-11.3863
ਮੂ	-11.3863
▁holds	-11.3863
▁செய்தி	-11.3863
வேண்டும்	-11.3865
▁belong	-11.3865
▁ಕರೆ	-11.3867
nce	-11.3869
िये	-11.387
▁ਕੇਂਦਰੀ	-11.3875
CT	-11.3875
▁ಪ್ರಯತ್ನ	-11.3877
▁Olympic	-11.3879
▁ਸਕੱਤਰ	-11.388
▁पुढील	-11.388
▁Industry	-11.3881
▁rose	-11.3882
▁consists	-11.3885
ಿಸುತ್ತದೆ	-11.3887
▁feels	-11.389
▁આભાર	-11.389
ੇਸ਼	-11.3891
▁அவர்களுக்கு	-11.3891
posed	-11.3893
300	-11.3893
long	-11.3893
▁Lucknow	-11.3894
▁અંત	-11.3895
▁resigned	-11.3896
▁મળ	-11.3896
bli	-11.3899
ku	-11.3901
▁charged	-11.3902
▁গাড়ি	-11.3903
কর্মী	-11.3903
▁लागेल	-11.3903
Ra	-11.3904
▁actual	-11.3904
வுக்கு	-11.3905
▁Uni	-11.3905
▁ನೋಡಿ	-11.3909
லில்	-11.391
ami	-11.391
▁கதை	-11.3911
▁ಕಂಪನಿ	-11.3915
▁चेक	-11.3915
▁સામગ્રી	-11.3916
જિ	-11.3918
▁પરિણામ	-11.3918
ಸಂ	-11.392
▁copy	-11.3923
▁ನಿರ್ದಿಷ್ಟ	-11.3924
▁Enter	-11.3924
▁ವಿಶ್ವ	-11.3925
▁ક્યાં	-11.3925
▁दौरे	-11.3926
▁আসা	-11.3926
மில்லை	-11.3926
▁इलाकों	-11.3927
phi	-11.3927
▁bike	-11.3928
बुल	-11.393
▁spa	-11.3931
▁வளர்ச்சி	-11.3931
ತೆಯನ್ನು	-11.3931
مت	-11.3933
قی	-11.3934
மாகும்	-11.3935
▁Bra	-11.3937
ಚೆ	-11.3937
▁समीक्षा	-11.3938
ث	-11.3942
दृश्य	-11.3942
▁आरोपों	-11.3943
ಭಾಷೆ	-11.3944
hand	-11.3946
▁உண்டு	-11.3946
ਫੋ	-11.3948
▁जाईल	-11.3949
ুক	-11.395
but	-11.3952
▁olive	-11.3953
▁आते	-11.3953
▁দেশে	-11.3954
मेक	-11.3956
ਬੋ	-11.3957
▁King	-11.3958
ਰਣ	-11.3961
▁সবই	-11.3964
▁ওকে	-11.3965
▁Commerce	-11.3966
▁সিনেমা	-11.3967
वला	-11.3969
▁વરસાદ	-11.3969
▁टॉ	-11.397
மானது	-11.3971
▁Friends	-11.3971
▁firing	-11.3972
િમ	-11.3973
▁राजा	-11.3974
▁ওদের	-11.3975
▁इंजन	-11.3975
▁ਸਥਾਨ	-11.3976
▁fifth	-11.3978
▁अफ्रीका	-11.3978
▁જાણી	-11.3979
১৯	-11.3979
াল	-11.398
PP	-11.3981
▁વધાર	-11.3982
த்துடன்	-11.3983
▁એના	-11.3983
▁strongly	-11.3986
▁Gra	-11.3986
▁god	-11.3988
▁दर्द	-11.399
▁ਰਹਿਣ	-11.399
ગર	-11.3991
ময়	-11.3991
▁Joshi	-11.3993
▁compensation	-11.3994
লাইন	-11.3994
ctor	-11.3994
▁रोकने	-11.3996
▁module	-11.3996
▁delicious	-11.3996
▁रच	-11.3997
▁experienced	-11.3998
▁Star	-11.3999
▁મારે	-11.3999
▁சென்ற	-11.4
▁लहान	-11.4001
▁inaugurated	-11.4001
ज़र	-11.4003
▁consist	-11.4003
▁पूछ	-11.4006
▁vs	-11.4006
एसएस	-11.4007
▁পরামর্শ	-11.4007
▁नव्हता	-11.4011
▁ਭਾਜਪਾ	-11.4014
ಂಡಿ	-11.4014
களால்	-11.4015
▁Anything	-11.4016
▁જેના	-11.4017
▁করো	-11.4017
▁toss	-11.4017
সন	-11.4021
piece	-11.4021
avi	-11.4022
vert	-11.4022
ૂં	-11.4022
▁Blue	-11.4023
▁ಸಾಮರ್ಥ್ಯ	-11.4024
▁અભ્યાસ	-11.4027
▁ಹೀಗಾಗಿ	-11.4028
ॅन	-11.4029
▁supposed	-11.403
pit	-11.4031
பெயர்	-11.4032
राज्य	-11.4032
▁ಒಳ್ಳೆಯ	-11.4034
▁કપ	-11.4037
ந்திர	-11.4037
▁निगरानी	-11.4039
▁requirements	-11.404
ભે	-11.404
ಕೀ	-11.4041
▁शहरों	-11.4041
▁பார்த்த	-11.4042
▁format	-11.4043
▁ਚਲ	-11.4045
▁अकाउंट	-11.4049
tant	-11.4049
ಕ್ರಮ	-11.405
▁ಜೀವ	-11.4051
▁strange	-11.4053
டிய	-11.4053
जवळ	-11.4056
▁પ્રશ્ન	-11.4057
ುತ್ತಾ	-11.4058
▁ভেবে	-11.4058
▁ਚੰਗੀ	-11.4059
▁দলের	-11.406
▁সম্বন্ধে	-11.4062
▁corona	-11.4063
ವರೆಗೂ	-11.4063
▁अंतर्राष्ट्रीय	-11.4065
▁clash	-11.4066
હાર	-11.4066
▁পরিকল্পনা	-11.4067
ாளி	-11.4067
▁leaving	-11.4069
▁செலுத்த	-11.4069
▁satisfied	-11.407
▁participation	-11.4073
▁গবেষণা	-11.4073
▁complicated	-11.4074
▁யார	-11.4075
हन	-11.4077
▁जै	-11.4079
▁walls	-11.4082
প্রদেশ	-11.4082
▁tribute	-11.4083
▁बनर्जी	-11.4084
▁verdict	-11.4087
▁scheduled	-11.4091
نڈ	-11.4092
ਰਨ	-11.4093
குடி	-11.4094
▁સમજ	-11.4094
▁सहमत	-11.4095
TE	-11.4095
▁মার্কিন	-11.4095
▁फ्रांस	-11.4096
fur	-11.4097
▁सन्	-11.4097
▁improved	-11.4098
ট্রা	-11.4098
▁Heavy	-11.4099
▁સંખ્યા	-11.4102
▁ভাষা	-11.4103
▁நடந்த	-11.4104
▁रोड	-11.4105
Afghan	-11.4105
ட்டில்	-11.4106
ধার	-11.4106
▁বিয়ে	-11.4106
▁મુલાકાત	-11.4106
▁संकट	-11.4107
ন্দ্র	-11.4107
शिया	-11.4108
▁investigate	-11.4108
▁younger	-11.4109
ET	-11.4109
▁master	-11.4109
▁निगम	-11.411
[	-11.411
ज्ज	-11.4111
कर्मियों	-11.4113
▁soul	-11.4115
liter	-11.4115
ियत	-11.4115
ிலேயே	-11.4116
▁ಮಳೆ	-11.4116
▁કોર્ટ	-11.412
▁এদের	-11.412
▁ਵਾਲਾ	-11.412
▁consumption	-11.412
ফু	-11.4122
▁detect	-11.4123
▁पत्रकार	-11.4125
▁ਵਿਦਿਆਰਥੀਆਂ	-11.4125
▁वाढत	-11.4127
ਹਾਰ	-11.4129
ંટ	-11.4131
ংস	-11.4131
▁revenue	-11.4133
্টা	-11.4133
▁खरं	-11.4133
▁प्रतियोगिता	-11.4134
▁Islamic	-11.4136
ਤਮ	-11.4139
▁ಇಂಡಿಯಾ	-11.414
▁drama	-11.414
▁congratulated	-11.4141
▁झालेल्या	-11.4142
▁தெரியும்	-11.4143
थि	-11.4144
▁सपोर्ट	-11.4148
েন্দ্র	-11.4148
▁Cor	-11.4153
પોર્ટ	-11.4153
ese	-11.4155
▁இதனை	-11.4155
▁ਕਾਰਜ	-11.4155
▁Sometimes	-11.4158
▁controversy	-11.4159
ಿಸಲಾಗಿದೆ	-11.416
▁রইল	-11.416
ந்தி	-11.416
▁पारी	-11.4161
▁collected	-11.4161
▁सुझाव	-11.4162
▁convict	-11.4162
ದೇಶ	-11.4163
▁infected	-11.4164
▁predict	-11.4164
ப்பட்டுள்ளன	-11.4165
▁आईपीएल	-11.4166
▁ವಿಮಾನ	-11.4169
▁ਕਰਦੀ	-11.4169
ுள்ளன	-11.4171
ff	-11.4172
▁जाणार	-11.4173
Are	-11.4173
▁મહત્વ	-11.4174
▁অনুষ্ঠানে	-11.4175
▁ಬ್ಯಾಂಕ್	-11.4175
TM	-11.4179
▁কর্মকর্তা	-11.4179
▁ভিন্ন	-11.4179
▁स्टोर	-11.418
জীব	-11.4183
▁செய்க	-11.4183
match	-11.4185
▁Awards	-11.4185
▁YouTube	-11.4185
▁ਵੇਖ	-11.4186
▁मोठा	-11.4187
▁तक्रार	-11.4188
▁দিয়েছে	-11.4191
▁showed	-11.4191
सां	-11.4192
নিয়া	-11.4192
▁चीजें	-11.4196
▁গ্রেফতার	-11.4198
▁दाखिल	-11.4201
▁coast	-11.4201
▁furniture	-11.4202
▁மகிழ்ச்சி	-11.4202
▁ਰੱਖਿਆ	-11.4202
▁regions	-11.4205
டர்	-11.4206
▁साम	-11.4207
▁ખોરાક	-11.4209
ಲ್ಪಟ್ಟ	-11.4211
▁ক্রিকেট	-11.4212
ுகின்றன	-11.4213
ಬರ್	-11.4213
▁बैटरी	-11.4213
▁اللہ	-11.4213
▁आधी	-11.4214
▁শিখ	-11.4215
ক্রি	-11.4216
யாகும்	-11.4217
▁rock	-11.4217
▁टै	-11.4219
▁Bharatiya	-11.4222
ಪಾಲ	-11.4222
▁தேர்வு	-11.4222
▁प्लान	-11.4223
▁अरविंद	-11.4223
ਅਸ	-11.4223
▁2:	-11.4223
▁विवाह	-11.4224
মিত	-11.4225
▁गईं	-11.4226
▁ફરી	-11.4227
বৃদ্ধি	-11.4228
duce	-11.4229
▁સ્તર	-11.423
bound	-11.423
तरी	-11.4231
த்திய	-11.4232
▁ਮੌਜੂਦ	-11.4233
▁केलं	-11.4234
▁उल्लेख	-11.4235
▁धाव	-11.4235
कस	-11.4237
▁বাইরে	-11.4238
▁Drink	-11.4238
▁schedule	-11.4239
स्पे	-11.4239
▁villagers	-11.424
▁350	-11.4241
▁लिंक	-11.4243
▁ಮಾಡಿದೆ	-11.4243
▁establishment	-11.4244
▁আবেদন	-11.4244
▁tear	-11.4247
▁लड़ाई	-11.425
விவர	-11.4254
▁एक्टर	-11.4255
▁distributed	-11.4256
▁इंटर	-11.4257
ਸ਼ਰ	-11.4258
▁entertainment	-11.4258
NG	-11.426
▁programs	-11.426
eration	-11.4261
▁ಸೇರಿದಂತೆ	-11.4264
▁அறிவ	-11.4264
ોએ	-11.4265
bus	-11.4266
ura	-11.4267
▁ਗੰਭੀਰ	-11.4267
विन	-11.4268
▁भारतात	-11.4268
▁ತಲೆ	-11.4269
▁ಅದ್ಭುತ	-11.4271
स्‍थ	-11.4272
night	-11.4272
ene	-11.4273
▁બાબત	-11.4274
▁stages	-11.4275
▁বুঝি	-11.4275
▁વખતે	-11.4277
▁disappointed	-11.4278
▁পারবে	-11.428
▁anger	-11.428
SD	-11.4281
▁5:	-11.4281
▁स्वतंत्रता	-11.4284
ಪಾದ	-11.4284
ாட்சி	-11.4284
▁சேவை	-11.4287
ম্ব	-11.4287
ીન	-11.4287
▁वातावरण	-11.4287
▁Sun	-11.4288
ਧਾਰ	-11.429
▁आलिया	-11.429
सिटी	-11.4292
ಾಂಶ	-11.4292
ಂಟಿ	-11.4295
▁चौधरी	-11.4295
▁expand	-11.4295
▁collaboration	-11.4298
र्भ	-11.4298
▁विवरण	-11.4298
▁ओडिशा	-11.43
ਸ਼ੇ	-11.4301
▁भीतर	-11.4301
▁creation	-11.4302
▁exams	-11.4303
▁दीपिका	-11.4306
দ্য	-11.4307
▁ফির	-11.4307
ਮਲ	-11.4307
एसबी	-11.4308
ाउंड	-11.4309
মূলক	-11.431
બ્લ	-11.431
▁விஷயம்	-11.4311
९	-11.4311
▁જેથી	-11.4312
▁Green	-11.4312
ich	-11.4314
গুলোর	-11.4314
▁ಮಾಡಿಕೊಳ್ಳ	-11.4314
▁ಅನುಭವ	-11.4315
▁அதனால்	-11.4316
மையான	-11.4317
▁அனைவரும்	-11.4317
▁জিজ্ঞাসা	-11.4318
रॉ	-11.4322
▁Being	-11.4323
ನಲ್	-11.4325
வாய்	-11.4327
▁चाह	-11.4327
▁मानना	-11.4328
▁commitment	-11.4331
কালে	-11.4333
போல்	-11.4334
▁விளக்க	-11.4334
▁composition	-11.4335
त्रा	-11.4336
स्थिती	-11.4336
લર	-11.4336
कां	-11.434
खु	-11.434
தன	-11.4341
ளம்	-11.4341
▁بہت	-11.4341
▁प्रबंध	-11.4344
▁solved	-11.4345
▁govern	-11.4345
lash	-11.4346
▁म्हणा	-11.4346
▁temples	-11.4346
▁ಫಲಿತಾಂಶ	-11.4346
▁फायदे	-11.4347
▁பிரச்சினை	-11.4347
▁Look	-11.4347
▁Swa	-11.4347
রাত	-11.4347
▁ಯುವ	-11.4348
iction	-11.4348
▁इमारत	-11.4349
தற்காக	-11.435
ினர்	-11.4352
एनए	-11.4353
▁وزیر	-11.4354
▁झालं	-11.4354
▁offices	-11.4354
▁2009	-11.4355
▁સામેલ	-11.4356
ट्	-11.4356
ees	-11.4356
▁இர	-11.4357
▁fly	-11.4358
▁बघ	-11.4358
▁leads	-11.4359
னே	-11.4361
▁રહ્યાં	-11.4363
▁caste	-11.4363
ிங்	-11.4363
தால்	-11.4363
▁4:	-11.4363
াতে	-11.4364
দর্শ	-11.4365
▁अमिताभ	-11.4365
ধান	-11.4366
▁இந்தப்	-11.4366
▁મેચ	-11.4367
▁முடிந்த	-11.4368
▁Kaur	-11.4368
▁ஏனென்றால்	-11.4369
▁হইয়া	-11.437
▁diabetes	-11.4371
எம்	-11.4371
▁वर्षीय	-11.4372
▁सर्वश्रेष्ठ	-11.4372
▁entry	-11.4373
ತೆಗೆ	-11.4374
▁अनिवार्य	-11.4375
யல்	-11.4376
ಾವ	-11.4377
ಹಿಂ	-11.4378
ानी	-11.4379
▁જેવા	-11.438
▁wearing	-11.438
ದಲ್ಲ	-11.438
▁Mahatma	-11.4382
▁ऐतिहासिक	-11.4384
▁ਪ੍ਰੋਗਰਾਮ	-11.4385
▁ಪ್ಯಾ	-11.4385
▁उत्तम	-11.4385
ங்கு	-11.4387
▁brown	-11.4387
डिया	-11.4388
▁(20	-11.439
▁ফোন	-11.4391
ಾಯ	-11.4392
▁Ganga	-11.4394
Trans	-11.4394
}$	-11.4395
Do	-11.4395
▁Command	-11.4396
्चर	-11.4397
ুম	-11.4397
▁preparations	-11.44
ிருந்தது	-11.4402
ण्याच्या	-11.4402
ਚਰ	-11.4403
▁statements	-11.4404
শত	-11.4404
ঢ	-11.4405
teen	-11.4405
னம்	-11.4406
৷	-11.4406
▁प्रगति	-11.4406
▁thoroughly	-11.4407
▁হইতে	-11.4408
▁என்னால்	-11.4411
▁sectors	-11.4411
▁সংবাদ	-11.4412
▁Nitish	-11.4413
▁variant	-11.4413
ਜੀਤ	-11.4413
▁भरपूर	-11.4414
▁MPs	-11.4414
▁manifest	-11.4415
▁ਕਮਰੇ	-11.4415
▁Arabia	-11.4415
▁transferred	-11.4416
▁स्रोत	-11.4418
பரி	-11.4422
▁तत्व	-11.4423
▁celebrate	-11.4423
▁यांची	-11.4423
▁विस्तृत	-11.4424
नीय	-11.4427
▁ہوئے	-11.4427
ರಾಜ್	-11.4428
▁gradually	-11.4429
DM	-11.4431
ಕೂ	-11.4431
▁slightly	-11.4432
▁ಆರೋಪ	-11.4432
वर्त	-11.4432
ையில்	-11.4433
▁finding	-11.4434
▁grief	-11.4434
mad	-11.4436
▁आस	-11.4436
▁হাত	-11.4438
▁रखी	-11.4439
▁protesters	-11.444
▁tired	-11.444
ਫਾ	-11.444
द्द	-11.4441
সভা	-11.4442
▁fever	-11.4444
▁ಸಿಕ್ಕ	-11.4444
▁quick	-11.4444
▁এমনটা	-11.4448
कॉन्	-11.4449
ಜ್ಞ	-11.4449
▁माहित	-11.4449
திர	-11.445
পুরুষ	-11.4451
वो	-11.4451
▁যাওয়া	-11.4454
Val	-11.4454
परि	-11.4457
▁મામલે	-11.4458
vas	-11.4459
ाइन	-11.446
▁driving	-11.4461
▁गतिविधियों	-11.4462
▁कमरे	-11.4462
▁ಆದೇಶ	-11.4463
▁घेतले	-11.4465
▁नियमों	-11.4465
▁પાંચ	-11.4466
▁अंग	-11.4466
ાની	-11.4469
ಿದ್ದಾನೆ	-11.447
நல	-11.447
▁கிடையாது	-11.4471
▁ਸਮੱਸਿਆ	-11.4473
▁Global	-11.4475
ಯಿ	-11.4476
▁Goyal	-11.4477
▁जॉन	-11.4477
▁அமெரிக்கா	-11.4478
கிற	-11.4479
▁ಇರುವ	-11.4483
▁ਹੋਵੇਗੀ	-11.4483
▁சிறிய	-11.4484
▁guarantee	-11.4485
षा	-11.4486
▁आत्महत्या	-11.4486
nan	-11.4486
টুকু	-11.4489
▁அடி	-11.449
▁नव्हती	-11.4491
▁chain	-11.4491
मार	-11.4495
ફાઇ	-11.4495
▁त्वचा	-11.4496
▁বলল	-11.4497
rect	-11.4497
▁প্রথমে	-11.4499
door	-11.4501
▁வருகின்றனர்	-11.4501
ಾತ್ಮಕ	-11.4502
▁उपयुक्त	-11.4502
ਨੋ	-11.4503
▁விமான	-11.4503
▁flights	-11.4503
▁monitoring	-11.4504
▁जागा	-11.4505
ਬੇ	-11.4507
▁ಆತ	-11.4508
▁enjoyed	-11.4509
ಹ್	-11.4509
▁teaching	-11.451
▁होटल	-11.4512
▁Conference	-11.4513
ब्रि	-11.4515
▁যত	-11.4515
ভু	-11.4515
▁ವಾಸ್ತವವಾಗಿ	-11.4517
ोत्	-11.4517
ஹா	-11.4519
ுகிற	-11.452
▁ನಿರ್ವಹಿಸ	-11.452
▁शिक्षक	-11.4521
▁चिकित्सक	-11.4521
oli	-11.4522
ಚಾರ	-11.4523
▁उत्पादों	-11.4524
▁રમત	-11.4526
▁એન્	-11.4526
ending	-11.4527
मय	-11.4528
▁install	-11.4529
▁Company	-11.4529
দী	-11.453
্ব	-11.453
For	-11.4534
▁ਚਾਹੀਦੀ	-11.4537
▁આપણા	-11.4538
▁filled	-11.4541
সম্	-11.4542
▁போக	-11.4542
੍	-11.4543
ಬ್ಬ	-11.4544
स्पीड	-11.4544
▁counter	-11.4544
▁மறு	-11.4546
nec	-11.4546
ಫೋ	-11.4548
ইয়া	-11.4548
▁प्रेस	-11.4549
▁novel	-11.4552
▁ममता	-11.4554
হর	-11.4554
எ	-11.4555
▁ಮಾಡುವುದು	-11.4557
▁தவிர	-11.4557
▁Gadkari	-11.4558
▁اپنے	-11.4559
▁आवाज	-11.456
▁જોઇએ	-11.456
▁ਬਿਲਕੁਲ	-11.4561
संख्य	-11.4561
▁পরবর্তী	-11.4563
▁legs	-11.4564
▁Leader	-11.4565
▁fields	-11.4565
▁virtual	-11.4565
னால்	-11.4565
▁प्रचार	-11.4567
▁Nehru	-11.4567
▁chosen	-11.4568
ಮು	-11.4568
है	-11.4568
▁Check	-11.4568
▁गेल्या	-11.4568
▁Malik	-11.4569
eb	-11.4569
▁शैली	-11.457
▁भरोसा	-11.4571
▁रणनीति	-11.4571
▁दूध	-11.4573
ेस्ट	-11.4573
▁হামলা	-11.4574
▁વિસ્તાર	-11.4574
▁Manish	-11.4576
▁Kings	-11.4578
▁tips	-11.4579
▁Western	-11.4579
▁ਸਭਾ	-11.4579
چی	-11.458
▁கண்ட	-11.458
বাহিনী	-11.4581
ਿਸ਼	-11.4582
▁निर्यात	-11.4582
▁रहना	-11.4583
▁समा	-11.4583
வள	-11.4584
▁deputy	-11.4585
▁एंटी	-11.4586
▁ईरान	-11.4587
▁नेपाल	-11.4591
ેલા	-11.4592
▁strategy	-11.4592
hail	-11.4593
▁સર્વ	-11.4597
ઓની	-11.4599
▁interests	-11.46
▁आहात	-11.4601
पथ	-11.4603
▁जिसकी	-11.4605
▁snow	-11.4605
செய்	-11.4606
▁German	-11.4606
▁मरीजों	-11.4607
லர்	-11.4608
▁proceed	-11.461
▁करावे	-11.4611
લેખ	-11.4611
▁lecture	-11.4612
▁ਨਾਮ	-11.4612
lly	-11.4614
▁Redmi	-11.4614
▁ಪ್ರಶಸ್ತಿ	-11.4617
▁પાકિસ્તાન	-11.4618
▁সন্দেহ	-11.4618
तुल	-11.4618
▁எனது	-11.4619
▁ಆರ್ಥಿಕ	-11.462
▁ತಿಳಿಯ	-11.4621
▁પ્રાપ્ત	-11.4622
▁हिस्सों	-11.4624
▁ہندوستان	-11.4625
ેસ	-11.4625
▁calling	-11.4626
▁ನಿರ್ಧರಿಸ	-11.4626
સ્થા	-11.4626
▁நாட்ட	-11.4626
▁purposes	-11.4627
ન્ન	-11.4627
ನನಗ	-11.4628
▁अधिकांश	-11.4629
▁resignation	-11.4629
▁ಹಾಗ	-11.4631
ੋਰ	-11.4631
ily	-11.4632
▁আপনারা	-11.4633
▁விதி	-11.4634
▁powered	-11.4634
▁श्रीलंका	-11.4634
▁Narayan	-11.4635
मंत्र	-11.4636
▁except	-11.4636
▁parking	-11.4636
▁improvement	-11.4636
ಕ್ಷಣ	-11.4639
▁பள்ளி	-11.464
कोर	-11.464
▁panic	-11.4642
▁অধিকার	-11.4643
▁ਕਰਦਿਆਂ	-11.4644
▁quarter	-11.4645
▁plenty	-11.4645
▁मुफ्त	-11.4646
ધિ	-11.4647
தெ	-11.4648
হিত	-11.4649
▁என்பத	-11.4651
▁لیکن	-11.4652
▁جناب	-11.4653
▁grams	-11.4653
▁জন্যে	-11.4656
▁तकनीक	-11.4658
▁વસ્તુઓ	-11.4659
kumar	-11.4661
▁Nor	-11.4662
▁தொடர்பு	-11.4662
▁technologies	-11.4664
▁जुटी	-11.4665
▁फाइनल	-11.4665
▁प्रकाशित	-11.4666
मंडल	-11.4667
▁Kaif	-11.4667
সং	-11.4672
▁consequences	-11.4672
▁ಪ್ರಾರಂಭಿಸ	-11.4673
▁निर्भर	-11.4673
▁ತಿಳಿಸಿದರು	-11.4674
धारण	-11.4675
▁journalist	-11.4675
▁टक्के	-11.4678
▁widely	-11.4678
போன	-11.468
qua	-11.4682
रत	-11.4683
▁પહોંચ	-11.4685
▁जाकर	-11.4686
ಗ್ರಾಮ	-11.4686
स्टा	-11.4686
▁पदों	-11.4687
lia	-11.4689
▁preparation	-11.4689
▁ছেড়ে	-11.4689
▁নিজে	-11.4691
▁Note	-11.4691
▁कार्यकर्ताओं	-11.4692
ંજ	-11.4693
▁பயன	-11.4693
સ્ટ્ર	-11.4698
▁किंमत	-11.4699
▁neighbour	-11.4699
▁facts	-11.47
▁جان	-11.4701
ಯೊಂದಿಗೆ	-11.4701
AL	-11.4701
▁banned	-11.4702
▁Sitharaman	-11.4704
▁आखिर	-11.4704
fect	-11.4704
▁ವಸ್ತುಗಳ	-11.4705
▁ಸಾರ್ವಜನಿಕ	-11.4706
▁Division	-11.471
▁suggest	-11.471
low	-11.4712
ullah	-11.4712
On	-11.4713
ிருக்கும்	-11.4713
▁thankful	-11.4715
▁સ્પષ્ટ	-11.4716
▁guide	-11.4717
▁બાજુ	-11.4718
ਟਾਂ	-11.4719
ರಸ	-11.4721
बाज	-11.4723
▁Gul	-11.4725
▁जातो	-11.4726
▁घटनास्थल	-11.4727
ખો	-11.473
▁Indonesia	-11.4732
कुश	-11.4734
▁industries	-11.4735
▁2008	-11.4735
▁unfortunate	-11.4736
▁ਕਦੇ	-11.4736
▁পরিমাণ	-11.4736
▁ਸਾਬਕਾ	-11.4736
ांतर	-11.4738
▁कारवाई	-11.4739
▁वस्तु	-11.4741
▁अल्	-11.4742
ঙ্গা	-11.4743
▁listed	-11.4745
மறை	-11.4745
▁ਉੱਚ	-11.4746
inter	-11.4746
தல்	-11.4748
▁Tur	-11.475
ologist	-11.475
▁fundamental	-11.4751
▁সৃষ্টি	-11.4751
▁Ladakh	-11.4754
▁tested	-11.4755
▁भूल	-11.4756
▁ಮಕ್ಕಳು	-11.4758
▁বেশী	-11.4762
▁एशिया	-11.4762
▁લેવામાં	-11.4762
▁Ah	-11.4767
▁continuing	-11.4767
ানো	-11.4768
एआई	-11.4768
▁significantly	-11.4769
▁એને	-11.477
▁बर्	-11.4772
वेल	-11.4772
▁captured	-11.4773
▁Recently	-11.4774
श्री	-11.4775
▁sight	-11.4777
▁जापान	-11.4778
ಟೈ	-11.478
ಜೀ	-11.478
phone	-11.4781
▁ਯਾਦ	-11.4781
De	-11.4781
▁এগুলো	-11.4782
▁ਕੋਵਿਡ	-11.4782
▁इस्तीफा	-11.4782
▁List	-11.4782
name	-11.4783
▁शारीरिक	-11.4786
▁ਪ੍ਰਬੰਧ	-11.4786
▁நம்ம	-11.4787
nam	-11.479
▁একে	-11.479
PA	-11.479
“	-11.4791
▁Saudi	-11.4791
▁background	-11.4792
▁ಅವುಗಳನ್ನು	-11.4794
unch	-11.4794
▁जिंदगी	-11.4795
▁bowler	-11.4795
▁கூறினார்	-11.4796
▁او	-11.4798
▁Was	-11.4798
▁Str	-11.48
▁prior	-11.48
नाग	-11.4801
க்காக	-11.4801
▁Tourism	-11.4802
▁studied	-11.4802
`	-11.4804
▁ફરિયાદ	-11.4805
▁Italy	-11.4805
▁club	-11.4805
▁nose	-11.4805
ಿಸಿದ್ದಾರೆ	-11.4806
শীল	-11.4807
PF	-11.4807
▁মানে	-11.4808
▁ਰਾਹੀਂ	-11.4809
▁Dan	-11.4809
▁Australian	-11.481
টু	-11.481
नेट	-11.4811
▁जिम्मेदार	-11.4812
▁accidents	-11.4813
▁Earth	-11.4813
▁निर्देशन	-11.4814
▁Suresh	-11.4818
ಗಳಾಗಿ	-11.4818
state	-11.482
power	-11.4821
પ્રે	-11.4822
▁explained	-11.4823
MoU	-11.4823
▁করলেন	-11.4827
▁અધ્યક્ષ	-11.4828
▁ತೊಂದರೆ	-11.4829
▁devotees	-11.4837
▁अशोक	-11.4838
▁ਬਾਹਰ	-11.4839
▁executive	-11.484
▁Fadnavis	-11.4841
▁চান	-11.4843
ट्रिक	-11.4843
▁મિશ્રણ	-11.4846
▁ਦੂਰ	-11.4846
▁cautious	-11.4847
▁signal	-11.4848
▁શરૂઆત	-11.4848
▁approximately	-11.485
▁Dha	-11.4858
கார	-11.4859
ਜੁ	-11.486
Exp	-11.4861
ਮਨ	-11.4861
▁मिलियन	-11.4862
ਅਨ	-11.4863
▁ಸಂತೋಷ	-11.4864
दायक	-11.4864
मधून	-11.4865
பயிற்சி	-11.4865
▁absconding	-11.4865
ছো	-11.4867
ுகள்	-11.4868
▁$\	-11.4869
▁আন্তর্জাতিক	-11.4871
▁fighter	-11.4871
ெல்லாம்	-11.4872
চীন	-11.4874
▁सख्त	-11.4875
োয়া	-11.4876
સ્ટે	-11.4876
જૂ	-11.4876
க்கூடிய	-11.4876
ਤਾਰ	-11.4879
▁હોસ્પિટલમાં	-11.488
▁lovely	-11.488
▁vital	-11.4881
▁avail	-11.4881
▁माइक्रो	-11.4882
radi	-11.4883
▁કોણ	-11.4884
▁खूबसूरत	-11.4884
▁ਕੁਮਾਰ	-11.4884
ਦਿਆਂ	-11.4885
ਧਾ	-11.4885
itu	-11.4888
গ্রহ	-11.489
कोट	-11.4891
▁Once	-11.4894
▁गेंदबाज	-11.4894
▁HDFC	-11.4894
▁assist	-11.4895
▁intention	-11.4897
ೆಂದು	-11.4897
Happy	-11.4897
▁देती	-11.4901
▁શાહ	-11.4902
▁योगी	-11.4902
ज्ञ	-11.4903
azi	-11.4903
▁ભારે	-11.4904
▁सहा	-11.4904
cade	-11.4905
▁ਪ੍ਰਭਾਵ	-11.4905
cut	-11.4907
ન્ય	-11.4909
▁સંપૂર્ણપણે	-11.491
▁चले	-11.491
▁commence	-11.4911
hold	-11.4911
ula	-11.4912
BA	-11.4915
ರೊ	-11.4915
ार्थ	-11.4917
টিকে	-11.4918
▁journal	-11.4922
ங்கா	-11.4923
▁ಭಾರತದಲ್ಲಿ	-11.4924
▁policies	-11.4924
सीपी	-11.4925
▁झारखंड	-11.4926
house	-11.4926
▁Dhan	-11.4927
▁egg	-11.4927
▁microSD	-11.4928
▁ਸਲਾਹ	-11.4929
▁আলাদা	-11.493
▁পুরস্কার	-11.493
▁Bombay	-11.4931
▁sand	-11.4934
▁अधीन	-11.4938
▁मजा	-11.4938
Name	-11.4938
▁பயன்	-11.4939
▁opposed	-11.4939
▁Panchayat	-11.4941
பீ	-11.4942
▁இனி	-11.4942
سٹ	-11.4944
ੰਨ	-11.4944
▁ಅದರಲ್ಲಿ	-11.4945
▁દેખ	-11.4945
சார	-11.4946
्रो	-11.4947
ened	-11.4951
▁समाचार	-11.4951
▁behalf	-11.4954
▁छान	-11.4954
उन्	-11.4955
▁বললেন	-11.4955
মাস	-11.4955
glo	-11.4956
pel	-11.4956
▁संप	-11.4956
▁ರೀತಿಯಲ್ಲಿ	-11.4957
ினால்	-11.4957
▁கிள	-11.4957
संदर्भात	-11.4959
▁आतंकवाद	-11.4959
▁cameras	-11.4959
▁चालू	-11.496
▁हार्दिक	-11.496
▁व्हिडिओ	-11.4961
▁करवा	-11.4961
▁स्वत	-11.4961
grade	-11.4961
▁Ramesh	-11.4961
var	-11.4963
guard	-11.4964
انے	-11.4964
स्‍त	-11.4966
▁ಯಾವುದ	-11.4966
▁என்றால்	-11.4968
▁தலைமை	-11.4968
▁કોરોના	-11.497
▁धोनी	-11.4973
▁ಅಂಥ	-11.4973
க்ஸ்	-11.4974
પ્ત	-11.4976
▁academic	-11.4977
▁মন্তব্য	-11.4977
કુમાર	-11.4978
ाणि	-11.4979
▁পৌঁছ	-11.498
▁नौकरी	-11.4981
▁weak	-11.4984
▁ਕਾਨੂੰਨ	-11.4986
▁loans	-11.4987
▁otherwise	-11.4988
▁चौक	-11.4988
ेक्ट	-11.4989
ಪೀ	-11.499
fri	-11.4992
▁ऐक	-11.4992
▁Academy	-11.4994
क्व	-11.4994
ವಾಯಿತು	-11.4995
ಾಯಿತು	-11.4995
▁ordinary	-11.4995
TA	-11.4997
▁mom	-11.4998
▁பொற	-11.4998
வெ	-11.4998
▁ಮೌಲ್ಯ	-11.4999
▁Based	-11.5
ক্ষেত্র	-11.5
பிடித்த	-11.5002
▁फॉर	-11.5002
▁ਮੈਂਬਰ	-11.5002
▁manage	-11.5003
▁Father	-11.5005
▁ઉચ્ચ	-11.5005
▁મૂલ્ય	-11.5006
wards	-11.5007
tric	-11.5007
▁ಅತ್ಯುತ್ತಮ	-11.5007
▁visiting	-11.5009
▁offence	-11.5009
पैकी	-11.501
▁regret	-11.5011
▁સંબંધ	-11.5011
کس	-11.5012
▁Washington	-11.5012
▁केन्द्रीय	-11.5013
▁Aadhaar	-11.5014
ાંત	-11.5015
▁Nu	-11.5015
பார்	-11.5016
▁मिश्रा	-11.5018
▁ਬੈਂਕ	-11.5018
▁উনি	-11.5021
▁ಎಂಬುದನ್ನು	-11.5022
▁असल्याचे	-11.5023
RC	-11.5023
owned	-11.5023
ৃত	-11.5023
▁உப்பு	-11.5024
▁ਜਾਣਾ	-11.5024
▁मानक	-11.5024
▁संघर्ष	-11.5024
related	-11.5025
ಕ್ಕಿ	-11.5028
▁citizen	-11.5028
यंत्र	-11.503
स्कर	-11.5031
▁ਹੱ	-11.5032
▁श्रृंखला	-11.5034
ಭಾವ	-11.5035
▁टिकट	-11.5035
▁व्हायरल	-11.5035
fla	-11.5035
▁उठ	-11.5036
ಕೊಟ್ಟ	-11.5036
▁পারব	-11.5038
▁पुणे	-11.5038
▁दूरी	-11.5038
▁முதலில்	-11.5039
▁சுமார்	-11.504
▁કઈ	-11.504
▁परियोजनाओं	-11.504
वू	-11.5041
াদ	-11.5041
storm	-11.5042
▁ಕಡೆ	-11.5042
▁perhaps	-11.5045
▁Like	-11.5045
▁customer	-11.5046
▁owners	-11.5048
▁helping	-11.5049
▁accurate	-11.5051
থে	-11.5052
ீர்கள்	-11.5052
▁Organisation	-11.5053
ನೂ	-11.5055
▁reference	-11.5056
ன்ஸ்	-11.5057
ાના	-11.5057
▁இடை	-11.5057
▁शाम	-11.5057
ताना	-11.5058
▁অবশ্য	-11.5058
▁उद्	-11.5058
▁பொருட்	-11.5058
ਵਿਕ	-11.5059
एमएस	-11.5059
oid	-11.5059
▁Communication	-11.5061
▁સહિત	-11.5063
▁mostly	-11.5064
▁ಬಹು	-11.5067
uro	-11.5067
▁guess	-11.5067
▁ਨੁਕਸਾਨ	-11.5068
▁Joint	-11.5068
▁bomb	-11.5069
▁ಅವಳ	-11.507
▁एकूण	-11.5071
▁বটে	-11.5071
▁ক্ষতি	-11.5072
▁Mukherjee	-11.5073
▁ஏற்பட்ட	-11.5074
500	-11.5074
▁RSS	-11.5075
▁पाने	-11.5076
▁सीख	-11.5077
নীয়	-11.5078
▁meant	-11.508
▁inform	-11.5083
வாழ்	-11.5083
▁গ্রেপ্তার	-11.5084
▁નક્કી	-11.5084
ਰਮ	-11.5085
▁फ्री	-11.5087
ez	-11.5087
लेला	-11.5088
▁suddenly	-11.5089
▁delay	-11.5089
▁প্রকৃত	-11.509
▁ਸਬੰਧ	-11.509
▁हथियार	-11.5091
anta	-11.5093
▁தொழில்	-11.5093
▁নানা	-11.5093
▁healthcare	-11.5094
hr	-11.5094
▁circumstances	-11.5096
▁ब्रिटेन	-11.5097
गिन	-11.5097
▁કિસ્સામાં	-11.5097
▁ಸಂಗೀತ	-11.5098
▁stayed	-11.5098
▁ভর্তি	-11.5103
ैन	-11.5105
▁ಪ್ರಸ್ತುತ	-11.5105
▁ವೇಗ	-11.5107
▁বিচার	-11.5107
▁અમેરિકા	-11.5107
▁operate	-11.5108
▁ঈশ্বরের	-11.5108
▁constructed	-11.5109
▁எப்போதும்	-11.5111
atory	-11.5112
▁அரசியல்	-11.5113
▁உதவ	-11.5114
▁संग्रह	-11.5114
▁Penal	-11.5114
TC	-11.5115
ਬਾਲ	-11.5117
▁அடைய	-11.5117
ાત	-11.5117
▁उतर	-11.5117
coll	-11.5118
▁alive	-11.512
انہ	-11.512
founder	-11.5122
▁এগিয়ে	-11.5123
captain	-11.5124
ીના	-11.5125
▁visible	-11.5125
▁ನ್ಯಾಯಾಲಯ	-11.5126
When	-11.5126
▁एफआईआर	-11.5126
গোল	-11.5128
છા	-11.5128
▁खरंच	-11.5129
▁ಸಿಬ್ಬಂದಿ	-11.513
▁तेलंगाना	-11.5133
▁கேட்க	-11.5133
▁finish	-11.5133
▁USB	-11.5135
شی	-11.5136
▁ಹೆಸರು	-11.5138
▁विधायकों	-11.5139
▁ગયું	-11.5139
▁এরকম	-11.5139
▁ಕರ್ನಾಟಕ	-11.5143
▁constituted	-11.5143
▁iOS	-11.5143
ਊ	-11.5143
▁independence	-11.5144
▁आमिर	-11.5146
લુ	-11.5147
▁ਸ਼ੁਰੂਆਤ	-11.5148
▁ತಯಾರಿಸ	-11.515
▁उड़ान	-11.5151
ইস	-11.5152
▁அதனை	-11.5153
हिर	-11.5154
▁নিয়ন্ত্রণ	-11.5154
Ba	-11.5154
اع	-11.5155
▁પસંદગી	-11.5155
je	-11.5157
ಬೈ	-11.5158
▁Paul	-11.5159
▁हाईकोर्ट	-11.5163
ಮೇಲ್	-11.5165
▁दलों	-11.5166
ರಿಯಾ	-11.5166
▁হয়তো	-11.5167
சார்	-11.5167
ದಾಯ	-11.5169
▁fake	-11.5169
ਪੂ	-11.517
▁ಸ್ಥಳೀಯ	-11.5173
ેશ	-11.5179
▁ठिकाणी	-11.5179
▁সামাজিক	-11.5181
▁Championship	-11.5182
▁শুন	-11.5182
▁مل	-11.5183
▁mask	-11.5183
▁પરિસ્થિતિ	-11.5183
▁resort	-11.5186
▁চিকিৎসা	-11.5188
ાવી	-11.5188
اؤ	-11.5188
ਐਨ	-11.5189
pon	-11.5189
▁પ્રકારની	-11.519
ામ	-11.519
▁courage	-11.5191
col	-11.5192
▁Wal	-11.5192
انی	-11.5192
ੰਟ	-11.5193
ನನ್ನು	-11.5193
▁Pay	-11.5193
▁complaints	-11.5194
▁ਨਜ਼ਰ	-11.5195
2020	-11.5196
▁पूछे	-11.5199
▁ಸಾಗ	-11.52
▁ક્યારેય	-11.5203
▁supporting	-11.5203
▁Forest	-11.5204
▁শাহ	-11.5204
மது	-11.5205
▁दत्त	-11.5208
▁advocate	-11.521
▁संवाद	-11.521
▁ಪ್ರೀತಿ	-11.521
▁काहीही	-11.5213
▁লাগল	-11.5217
जब	-11.5217
▁ਹਾਈ	-11.5217
▁motorcycle	-11.5218
▁आतंकवादी	-11.5218
▁केलेल्या	-11.5219
ॉय	-11.522
slide	-11.5222
▁ಸರ್ಕಾರದ	-11.5224
▁পদ্ধতি	-11.5224
▁नोटिस	-11.5225
▁adults	-11.5225
ாகும்	-11.5225
▁Bengali	-11.5227
▁बहन	-11.5228
களா	-11.5228
▁composed	-11.5229
▁declined	-11.5229
▁சரியான	-11.5229
▁ડિઝાઇન	-11.523
▁ಪ್ರಯೋಜನ	-11.523
▁mutual	-11.523
▁तरीही	-11.5231
ike	-11.5231
▁આપણી	-11.5231
▁புரிந்து	-11.5232
▁म्हटले	-11.5233
▁गोल	-11.5234
کن	-11.5236
ਪਲ	-11.5238
▁critic	-11.5239
▁কেন্দ্রীয়	-11.5239
▁mine	-11.5241
▁তালিকা	-11.5241
▁ಸಾಧ್ಯತೆ	-11.5242
▁rivers	-11.5244
▁eligible	-11.5245
▁behavior	-11.5248
સં	-11.5248
▁આધાર	-11.5249
▁ದೂರು	-11.525
▁डॉक्टरों	-11.5253
ॅक	-11.5254
ড়িয়ে	-11.5254
विषयी	-11.5255
▁એવી	-11.5257
▁ನಿಜಕ್ಕೂ	-11.5258
پور	-11.526
▁कलर	-11.5262
▁کرتے	-11.5265
▁Federation	-11.5266
ਬੂ	-11.5266
▁ticket	-11.5268
வித	-11.5268
▁ಉದಾಹರಣೆ	-11.5269
ਬਾਰ	-11.5269
"""""""	-11.527
▁pivotal	-11.5271
▁witness	-11.5271
▁পালন	-11.5272
த்துவ	-11.5272
▁formal	-11.5272
▁footage	-11.5273
▁દેશમાં	-11.5279
नियम	-11.5279
▁लंबी	-11.5283
▁சம்பவ	-11.5284
Coronavirus	-11.5284
▁accomplish	-11.5284
▁बनाना	-11.5285
▁Head	-11.5286
পন	-11.5286
▁फु	-11.5286
▁હજી	-11.5286
▁adequate	-11.5287
ઝી	-11.5287
scribe	-11.5287
▁ಅಷ್ಟ	-11.5288
▁समृद्ध	-11.5289
ಪಡ	-11.529
▁தாக்க	-11.529
▁quit	-11.5292
▁Kingdom	-11.5293
▁এছাড়া	-11.5293
▁Auto	-11.5294
யின	-11.5295
▁determined	-11.5296
▁straight	-11.53
▁করল	-11.53
ಸನ್	-11.53
▁Policy	-11.5302
▁उद्यम	-11.5302
▁રચના	-11.5304
▁concerns	-11.5305
ಢ	-11.5305
তন	-11.5306
াপ	-11.5308
▁किन्तु	-11.5308
உ	-11.531
▁तट	-11.531
▁करीत	-11.5311
▁लेखक	-11.5312
▁પ્રમાણે	-11.5313
पान	-11.5314
▁উদ্দেশ্য	-11.5315
▁क्षेत्रीय	-11.5316
ियर	-11.5316
ਲਾਈ	-11.5317
lec	-11.5317
▁ریاست	-11.5317
▁गृहमंत्री	-11.5317
▁संग	-11.5318
▁ಆದಾಗ್ಯೂ	-11.5318
▁কাউকে	-11.5319
▁सेवन	-11.5319
ಬೆ	-11.5319
મ્બ	-11.532
▁dual	-11.5321
யையும்	-11.5323
▁blend	-11.5324
▁provision	-11.5327
▁ओवर	-11.5327
▁Part	-11.5328
चंद	-11.5328
யைப்	-11.533
স্তা	-11.533
▁पढ़ें	-11.533
ttle	-11.5332
▁ಉಪ್ಪು	-11.5332
ಫಾ	-11.5333
▁அவசியம்	-11.5334
વ્યા	-11.5335
▁pour	-11.5335
wara	-11.5335
▁कुठ	-11.5336
ಲಿಯ	-11.5336
▁Thereafter	-11.5336
▁படை	-11.5338
▁ಸ್ಪಷ್ಟ	-11.5338
▁ਦੁਨੀਆ	-11.5338
ೇಶ್	-11.5339
▁உறுதி	-11.5339
divide	-11.5341
اری	-11.5341
▁constituencies	-11.5343
▁ಅಂಗ	-11.5343
▁प्रवास	-11.5346
▁guy	-11.5347
পার্	-11.5348
▁Padma	-11.5348
اق	-11.5348
॥	-11.5352
▁रणवीर	-11.5352
▁Energy	-11.5353
▁nations	-11.5354
▁चाहे	-11.5354
anti	-11.5354
▁improving	-11.5356
ாங்க	-11.5357
tle	-11.5359
▁प्रावधान	-11.5361
ஃப்	-11.5363
▁ચાલો	-11.5363
▁weapons	-11.5363
▁affairs	-11.5365
▁दुकान	-11.5365
▁ভীষণ	-11.5365
▁जल्दी	-11.5367
▁करीना	-11.5368
पड़ताल	-11.5368
▁ਅਮਰੀਕਾ	-11.5368
▁cooking	-11.537
▁सकी	-11.5372
த்தையும்	-11.5372
▁ಗೌರವ	-11.5372
▁இந்தியாவில்	-11.5373
ಿಕೊಳ್ಳಿ	-11.5373
গতি	-11.5373
િવ	-11.5377
▁ਰਾਸ਼ਟਰਪਤੀ	-11.538
▁resistance	-11.5381
तिक	-11.5382
▁ऑटो	-11.5382
▁fan	-11.5385
Pa	-11.5385
▁একেবারে	-11.5386
▁ત્યારબાદ	-11.5388
ક્ટર	-11.5389
▁ಮಾಡಲಾಗಿದೆ	-11.5389
▁वाटते	-11.539
▁இறுதி	-11.5392
▁અનુસાર	-11.5392
▁Em	-11.5393
▁shade	-11.5393
▁(2)	-11.5394
সায়	-11.5394
▁ಬದಲಾಗ	-11.5394
▁தெரிவிக்க	-11.5394
▁রহমান	-11.5395
JP	-11.5397
lation	-11.5398
▁इंटरनल	-11.5398
section	-11.5399
▁Big	-11.5399
▁सर्वाधिक	-11.54
▁बलों	-11.54
▁withdraw	-11.5401
ಟನ್	-11.5401
▁attitude	-11.5401
▁कार्यकारी	-11.5401
▁ফেলে	-11.5401
▁ದೇಹ	-11.5403
▁passing	-11.5404
▁महासचिव	-11.5406
▁بھارت	-11.5406
▁आपले	-11.5407
▁stuff	-11.5407
एमए	-11.5409
▁প্রতিষ্ঠান	-11.5409
▁apartment	-11.541
▁transmission	-11.541
TR	-11.541
▁ಕೊಠಡಿ	-11.541
verse	-11.5411
ராஜ	-11.5412
ैंड	-11.5412
▁নরেন্দ্র	-11.5412
▁didnt	-11.5412
▁relation	-11.5414
▁प्रसार	-11.5414
MO	-11.5414
bia	-11.5414
▁கிடைக்க	-11.5415
▁Continue	-11.5416
▁आरोपितों	-11.5416
▁possession	-11.5417
▁जब्त	-11.5419
▁Last	-11.542
▁અત્યાર	-11.5421
▁ਉੱ	-11.5423
ON	-11.5423
▁मृतक	-11.5425
del	-11.5425
ந்தது	-11.5426
▁ಹಾನಿ	-11.5426
▁होकर	-11.5427
▁ਪਿਆਰ	-11.5427
▁पार्क	-11.5429
▁हिमाचल	-11.543
▁வந்து	-11.5432
▁ಹೀಗ	-11.5433
▁தெரிய	-11.5433
▁वर्षा	-11.5434
▁spokesman	-11.5436
▁broad	-11.5439
▁যাব	-11.544
▁চায়	-11.5441
▁माझा	-11.5441
▁উন্নয়ন	-11.5444
জনের	-11.5445
▁शहीद	-11.5446
▁forever	-11.5447
ಾಟ	-11.5447
র্ড	-11.5447
اپ	-11.5449
▁offering	-11.545
▁sites	-11.545
வன	-11.5452
▁चांगली	-11.5453
▁उनको	-11.5453
▁વડાપ્રધાન	-11.5454
्रा	-11.5456
▁Principal	-11.5457
▁खतरा	-11.546
▁இசை	-11.5461
டைய	-11.5461
ಾಂತ	-11.5462
ठे	-11.5463
▁Environment	-11.5464
DF	-11.5466
▁इनकी	-11.5466
▁संचालन	-11.5468
MB	-11.5469
க்கை	-11.5469
▁context	-11.5471
▁ಸುದ್ದಿ	-11.5471
ವ್ಯಾ	-11.5472
डु	-11.5472
▁سو	-11.5473
ugh	-11.5473
▁शहरी	-11.5474
▁throw	-11.5474
▁दिलचस्प	-11.5475
▁વધુમાં	-11.5475
▁সালের	-11.5476
▁assault	-11.5476
▁निराश	-11.5477
▁Ayodhya	-11.5478
eri	-11.548
▁প্রশ্নের	-11.548
ल्यानंतर	-11.548
খে	-11.5482
▁illness	-11.5482
▁অসাধারণ	-11.5483
▁પ્રકારના	-11.5483
टिव	-11.5484
▁switch	-11.5485
eries	-11.5486
▁kilometres	-11.5486
▁দায়	-11.5486
▁integral	-11.549
▁व्यक्तियों	-11.5491
pec	-11.5493
▁அதிகமாக	-11.5493
▁telling	-11.5493
▁বোঝা	-11.5494
▁મુંબઈ	-11.5494
▁ಅಧಿಕಾರಿಗಳು	-11.5494
▁આગ	-11.5496
pha	-11.5496
▁Assistant	-11.5498
▁নিরাপত্তা	-11.5499
ध्व	-11.5499
ीची	-11.5501
ध्या	-11.5504
▁मशीन	-11.5505
▁prominent	-11.5505
RA	-11.5507
राष्ट्र	-11.5509
▁tourist	-11.551
▁निम्नलिखित	-11.551
ন্ধ	-11.5511
▁প্রেম	-11.5514
Yes	-11.5515
स्वी	-11.5516
▁ਖ਼ਿਲਾਫ਼	-11.5517
cation	-11.552
▁ಸಂಗತಿ	-11.5521
▁represented	-11.5522
▁buying	-11.5522
▁Patil	-11.5523
▁sales	-11.5526
▁আয়	-11.5527
▁सोपे	-11.5528
ಣಾ	-11.5529
▁राज्यसभा	-11.5529
}{	-11.5529
▁ಮಾತ	-11.553
சர	-11.553
Al	-11.5532
▁विटामिन	-11.5532
বাংলা	-11.5533
हट	-11.5533
माल	-11.5534
▁Indies	-11.5534
ுப்	-11.5536
ಕ್ರ	-11.5536
pr	-11.5536
▁लीड	-11.5538
▁tank	-11.5538
▁পরিচিত	-11.5539
▁Patna	-11.5539
▁શકીએ	-11.554
▁delivery	-11.554
জের	-11.554
▁folk	-11.5542
செ	-11.5542
finite	-11.5543
▁ஏற்பட	-11.5545
▁Rural	-11.5546
▁बुनियादी	-11.5546
eem	-11.5546
▁tool	-11.5549
டோ	-11.555
▁buses	-11.5551
▁બનાવી	-11.5552
▁राजीव	-11.5555
▁Hossain	-11.5555
▁हिस्से	-11.5557
▁निर्देशक	-11.5557
▁इकाई	-11.5558
▁પગ	-11.5559
ುವುದರಿಂದ	-11.5561
हत	-11.5563
▁ಚುನಾವಣೆ	-11.5563
direct	-11.5568
▁dismissed	-11.5569
▁ಇಲಾಖೆ	-11.557
ियाँ	-11.5573
▁স্বাধীন	-11.5573
▁heaven	-11.5575
ೋಣ	-11.5579
▁એર	-11.5579
वंत	-11.558
▁छोड़कर	-11.5581
▁देगा	-11.5581
▁bond	-11.5581
▁ಹೆಚ್ಚಿಸ	-11.5581
▁welcomed	-11.5583
وٹ	-11.5584
एंगे	-11.5584
▁losing	-11.5584
▁appointment	-11.5585
▁जीतने	-11.5585
▁Nirmala	-11.5586
▁ਹੋਵੇ	-11.5586
िव	-11.5586
ಂಟು	-11.5587
्ते	-11.5587
▁வெளியே	-11.5588
▁એમાં	-11.5588
▁காரணமாக	-11.5588
▁Vish	-11.5589
▁Lin	-11.5589
▁ತಿಂಗಳ	-11.5591
▁चोपड़ा	-11.5591
▁ਪਿੰਡ	-11.5592
▁வீர	-11.5592
▁এলাকা	-11.5592
▁Trade	-11.5592
sensitive	-11.5593
▁कोणतीही	-11.5593
▁ಭಯ	-11.5594
▁cop	-11.5595
প্রাপ্ত	-11.5595
▁ઓછી	-11.5596
वारी	-11.5597
corporate	-11.5598
▁मोठी	-11.5599
புர	-11.5602
পশ্চিম	-11.5602
▁मिळत	-11.5602
▁ಇರಲಿಲ್ಲ	-11.5603
nov	-11.5603
ম্প	-11.5604
▁કારણો	-11.5605
▁ಚರ್ಮ	-11.5606
▁corner	-11.5606
▁இடம்	-11.5607
▁वनडे	-11.5608
▁लगने	-11.5609
▁ಕಳೆದ	-11.5609
▁Staff	-11.561
स्थान	-11.561
burn	-11.5611
▁जमानत	-11.5611
▁உதாரண	-11.5612
ُ	-11.5613
▁দিয়েছেন	-11.5614
▁पैसा	-11.5614
▁મેળવી	-11.5615
▁ಖಾನ್	-11.5617
▁ਚੰਗਾ	-11.5618
▁cheap	-11.5618
घु	-11.5618
▁अपेक्षा	-11.562
ಕ್ಸಿ	-11.562
বাল	-11.5621
▁sick	-11.5623
ঙ্	-11.5624
▁ਦੂਜੇ	-11.5625
रानी	-11.5625
▁यात्री	-11.5626
test	-11.5626
▁expert	-11.5626
குறி	-11.5626
ுகிறோம்	-11.5627
▁बिक्री	-11.563
ेक्स	-11.563
नम	-11.5632
▁எடுத்துக்	-11.5633
▁breathing	-11.5633
water	-11.5634
रोप	-11.5634
▁decades	-11.5634
▁Ap	-11.5635
▁বৃষ্টি	-11.5637
ಚು	-11.564
▁Industries	-11.564
▁गाय	-11.5641
ायचे	-11.5641
▁ಮಹಾ	-11.5642
▁பக்க	-11.5645
▁polling	-11.5649
▁अनुच्छेद	-11.5649
घो	-11.5649
▁ਸੁਣ	-11.5651
▁ಮತ್ತೊಂದು	-11.5651
▁নিজেকে	-11.5651
▁comfort	-11.5652
▁standards	-11.5652
▁நம்பிக்கை	-11.5653
▁কষ্ট	-11.5655
▁प्रोजेक्ट	-11.5657
हस्त	-11.5658
▁principal	-11.5658
▁ಎರಡನೇ	-11.5659
▁ਦੋਵਾਂ	-11.5659
lap	-11.5661
▁innovation	-11.5661
▁formula	-11.5661
▁ઉકેલ	-11.5662
▁यांचा	-11.5664
eh	-11.5665
▁શીખ	-11.5666
▁जातात	-11.5667
aria	-11.5669
▁तमिल	-11.567
ાયેલ	-11.5671
▁ಅಂದ	-11.5671
▁यूनिवर्सिटी	-11.5671
▁ਸਕੇ	-11.5672
▁बाइक	-11.5672
ement	-11.5673
▁மைய	-11.5673
▁आग्रह	-11.5676
▁મહા	-11.5678
▁সভাপতি	-11.5678
dhar	-11.5678
▁तकनीकी	-11.5681
પ્રધાન	-11.5685
▁apart	-11.5687
▁ইচ্ছা	-11.5688
ॉर	-11.5689
▁ವಿಭಿನ್ನ	-11.569
நி	-11.5694
ানোর	-11.5694
▁consume	-11.5696
▁நீண்ட	-11.5698
ਲੂ	-11.5698
▁Municipal	-11.5699
લોક	-11.57
கல்	-11.57
▁departments	-11.5704
▁interaction	-11.5705
ski	-11.5705
▁केंद्रित	-11.5705
▁Pen	-11.5706
▁immense	-11.5707
▁ಸರಿಯಾಗಿ	-11.5707
▁ਚਾਹੁੰਦੇ	-11.5707
while	-11.5708
▁लक्षात	-11.5708
▁closely	-11.5709
শী	-11.5709
▁honor	-11.5711
▁Celsius	-11.5711
▁quantity	-11.5711
▁disorder	-11.5712
▁ਸੂਬੇ	-11.5712
▁gathering	-11.5713
ેલી	-11.5714
্যে	-11.5714
▁demanding	-11.5715
▁રજૂ	-11.5718
*	-11.5719
ಿರುವುದು	-11.5719
▁greatest	-11.572
▁ધ્યાનમાં	-11.5723
▁ছাত্র	-11.5724
▁Singapore	-11.5724
ग्राफ	-11.5725
▁Yet	-11.5725
ியுள்ளது	-11.5727
▁রক্ত	-11.5727
▁Bureau	-11.5729
▁saved	-11.5729
ैर	-11.5729
▁যাচ্ছি	-11.5729
िनी	-11.5731
▁Next	-11.5731
व्ही	-11.5731
জ্	-11.5732
प्रति	-11.5732
ंभ	-11.5733
र्त	-11.5734
▁પાર્ટી	-11.5734
▁રાહ	-11.5735
▁statue	-11.5735
▁जेव्हा	-11.5737
▁Ash	-11.5737
சக்தி	-11.5737
▁encourage	-11.574
▁मुकाबले	-11.574
▁হইবে	-11.574
▁prescribed	-11.5742
▁घाला	-11.5742
nish	-11.5742
▁ਖਾਸ	-11.5744
ટિક	-11.5748
▁मास्क	-11.5749
▁ਆਪਣਾ	-11.5749
પ્લ	-11.5751
▁ਪ੍ਰੋ	-11.5752
▁लिखित	-11.5752
ನೊಂದಿಗೆ	-11.5752
▁180	-11.5754
▁हृदय	-11.5754
▁দুঃখ	-11.5755
ਨਿਰਦੇਸ਼	-11.5755
rov	-11.5756
hydr	-11.5757
▁পাঠানো	-11.5758
▁birds	-11.576
▁ಮಹಿಳೆಯರ	-11.576
▁belief	-11.5761
सैनिक	-11.5762
▁ठंड	-11.5763
Pakistan	-11.5764
▁ಉಚಿತ	-11.5765
▁कन्	-11.5766
भूषण	-11.5766
▁सेवाएं	-11.5767
▁teach	-11.5768
▁Aren	-11.577
▁அடிப்படை	-11.577
▁ਸਿੱਖ	-11.5772
4,000	-11.5772
▁સ્વાસ્થ્ય	-11.5772
▁ವ್ಯಕ್ತಪಡಿಸ	-11.5773
mut	-11.5774
प्स	-11.5775
ಹೀ	-11.5776
▁calcium	-11.5777
ambi	-11.5777
▁spreading	-11.5778
play	-11.5778
▁Tom	-11.5779
க்கிறது	-11.578
▁Jaitley	-11.5781
▁प्रत्यक्षात	-11.5781
▁நேரத்தில்	-11.5781
بل	-11.5782
▁obtain	-11.5785
▁ऋण	-11.5786
▁ਖਰੀਦ	-11.5786
▁unable	-11.5787
▁आसानी	-11.5787
सद	-11.5787
gaon	-11.5787
▁complain	-11.5788
னோ	-11.5789
▁ਭੇਜ	-11.579
▁Mark	-11.5792
એફ	-11.5792
oy	-11.5792
▁wonder	-11.5793
ল্ড	-11.5794
▁সামনে	-11.5795
ਹੇ	-11.5796
પ્લે	-11.5798
▁वर्षों	-11.5798
मिट	-11.5798
▁வயது	-11.5799
▁Ashwin	-11.5801
▁Report	-11.5801
▁ratio	-11.5804
▁પ્રકાશ	-11.5804
▁அவள்	-11.5805
▁वितरण	-11.5806
▁स्वच्छ	-11.5807
▁લોકપ્રિય	-11.5808
▁ದೇವರ	-11.5809
▁restaurant	-11.581
▁வாய்ப்பு	-11.581
▁Boss	-11.5811
▁मार्च	-11.5812
▁படம்	-11.5812
▁कळ	-11.5814
tru	-11.5815
▁சாத	-11.5815
ਿੰਦਰ	-11.5816
▁அதிகரிக்க	-11.5817
▁প্রস্তুত	-11.5818
▁ફરીથી	-11.5819
▁falls	-11.5819
▁রয়েছেন	-11.582
▁करण्या	-11.5821
▁Anti	-11.5821
▁sharp	-11.5822
▁USA	-11.5822
▁ਯਕੀਨੀ	-11.5822
ancy	-11.5823
▁Nand	-11.5823
ण्याचे	-11.5824
▁ಅವುಗಳ	-11.5825
▁flat	-11.5829
▁याप्रकरणी	-11.5832
▁संभाल	-11.5833
▁ਅਧਿਕਾਰੀਆਂ	-11.5833
एसए	-11.5833
bro	-11.5834
ும	-11.5834
▁कार्यों	-11.5834
▁boys	-11.5834
▁ரூபாய்	-11.5836
পের	-11.5838
निर्मित	-11.5838
▁painting	-11.5839
some	-11.584
▁larger	-11.584
▁ತೂಕ	-11.5841
▁રોક	-11.5843
▁आइए	-11.5844
▁पर्यटक	-11.5846
▁औद्योगिक	-11.5846
▁environmental	-11.5846
चार्ज	-11.5847
ফ্র	-11.5848
▁Main	-11.5848
ಟೊ	-11.5848
▁ਮੀਡੀਆ	-11.5848
3,000	-11.5849
▁ಕಥೆ	-11.5849
▁mid	-11.5849
▁સલાહ	-11.585
ीचा	-11.585
▁feelings	-11.5852
ਭੂ	-11.5852
▁ફોટો	-11.5853
▁அமைப்பு	-11.5853
▁Nav	-11.5856
▁जोड	-11.5858
▁southern	-11.586
▁ವಿಭಾಗ	-11.586
ત્રી	-11.5863
▁Mill	-11.5864
▁அவள	-11.5865
▁Manoj	-11.5865
▁Bhushan	-11.5869
૨	-11.587
hara	-11.5871
▁শরীর	-11.5872
टेल	-11.5872
anga	-11.5872
क्रिया	-11.5873
▁ঘটেছে	-11.5873
ਗਲ	-11.5873
▁आराम	-11.5874
▁Britain	-11.5875
▁batsman	-11.5876
▁संस्थानों	-11.5877
▁गिरावट	-11.5877
Man	-11.5878
▁ರಾಹುಲ್	-11.5878
▁दौर	-11.5879
▁হোসেন	-11.5881
▁મજબૂત	-11.5881
CS	-11.5881
▁ਅੰਤ	-11.5882
▁सिफारिश	-11.5884
ிருக்கிறார்	-11.5885
ಿಸಿದೆ	-11.5885
ेच्या	-11.5887
ೆಂದರೆ	-11.5889
▁mandatory	-11.589
▁ਤਕ	-11.5891
▁Tre	-11.5892
ধু	-11.5896
▁Manohar	-11.5897
▁بن	-11.5897
▁extent	-11.5901
▁ખુશ	-11.5902
▁favour	-11.5903
ਪਤ	-11.5905
with	-11.5907
▁Eastern	-11.5909
▁mixed	-11.591
▁Reliance	-11.591
▁तिथे	-11.5911
াক	-11.5911
▁અધિકાર	-11.5913
▁Malaysia	-11.5914
▁मुकाबला	-11.5914
▁affects	-11.5915
▁harmful	-11.5915
▁attractive	-11.5915
ॉड	-11.5916
▁ಬೆಂಬಲ	-11.5916
▁चलता	-11.5918
▁பெரும்	-11.5919
▁लीग	-11.592
▁ਸੇਵਾ	-11.592
▁प्रदर्शित	-11.5921
▁Muk	-11.5923
▁संगठनों	-11.5923
▁(2	-11.5928
गृह	-11.5929
TH	-11.593
▁travelling	-11.593
▁तुम्हें	-11.5931
▁দুর্ঘটনা	-11.5932
▁गुप्ता	-11.5933
ਪੋਰਟ	-11.5934
▁जीता	-11.5934
▁देऊ	-11.5934
▁વજન	-11.5936
▁Cre	-11.5936
▁मिलती	-11.5936
▁જઈ	-11.5936
▁நடித்த	-11.5938
র্থ	-11.5939
tech	-11.5939
▁காங்கிரஸ்	-11.594
▁capable	-11.5941
▁ಜನಪ್ರಿಯ	-11.5943
fil	-11.5944
▁ಅಗತ್ಯವಿದೆ	-11.5945
▁disappear	-11.5946
▁substances	-11.5946
ভো	-11.5946
▁Case	-11.5946
▁भ्रष्टाचार	-11.5949
▁ঘরে	-11.595
▁অপরাধ	-11.595
▁হ্যা	-11.5951
▁बाहेर	-11.5951
ಲ್ಲೇ	-11.5953
▁ತಾಯಿ	-11.5957
▁crying	-11.5958
▁disturb	-11.5958
ِ	-11.5959
▁ಇಲ್ಲಿದೆ	-11.5959
மாட்ட	-11.5959
ਤੁ	-11.596
ಷ್ಠ	-11.5962
িয়ান	-11.5963
▁ਅਧਿਕਾਰੀ	-11.5967
where	-11.5967
▁peak	-11.5967
ક્ત	-11.5968
▁portion	-11.5968
▁ತೋರಿಸ	-11.5968
▁picked	-11.597
▁બેંક	-11.5971
ಬೇಕಾಗುತ್ತದೆ	-11.5972
▁lifestyle	-11.5972
▁বাংলাদেশের	-11.5973
▁neck	-11.5974
▁appealed	-11.5975
▁initiatives	-11.5976
▁prefer	-11.5977
▁ಮಹಿಳೆ	-11.5977
▁ਮੀਟਿੰਗ	-11.5978
شن	-11.5978
▁talent	-11.5979
▁Marathi	-11.5979
▁ਸਹਾਇਤਾ	-11.5979
▁ਚੁਣ	-11.598
ಬಂಧ	-11.598
ense	-11.5981
▁ઉપ	-11.5982
▁জীবনের	-11.5983
▁सरकारने	-11.5983
▁ओलंपिक	-11.5984
کا	-11.5984
▁ਮਹਿ	-11.5985
▁thanked	-11.5989
ષ્ટ	-11.5989
▁হলেন	-11.599
▁physician	-11.599
ಸೊ	-11.5993
▁ਪੜ੍ਹ	-11.5994
▁contesting	-11.5996
इंग	-11.5998
▁compete	-11.5999
▁ব্যবসা	-11.5999
தல	-11.6002
ायची	-11.6002
ર્થ	-11.6003
▁प्रतिभा	-11.6003
▁தங்க	-11.6006
▁shortage	-11.6007
▁Doctors	-11.6007
rush	-11.6007
▁Tar	-11.6011
▁ટેસ્ટ	-11.6011
લેન્ડ	-11.6012
▁ಬದುಕ	-11.6015
ीचे	-11.6015
▁ಎಲ್ಲರೂ	-11.6016
▁setup	-11.6016
बंदी	-11.6016
▁tight	-11.6016
ಒ	-11.6016
▁सीसीटीवी	-11.6019
▁જિલ્લા	-11.6019
mple	-11.6019
▁radio	-11.602
▁Rajesh	-11.602
▁थांब	-11.6021
▁greatly	-11.6022
▁arrive	-11.6023
▁expanded	-11.6023
▁उठाए	-11.6025
▁Mother	-11.6025
▁कैमरे	-11.6025
माग	-11.6029
▁પૂછ	-11.603
▁bless	-11.6033
▁surgery	-11.6033
१९	-11.6034
ब्ल	-11.6035
ುತ್ತಾನೆ	-11.6035
▁Say	-11.6036
ப்பது	-11.6037
▁রাজ্যের	-11.6038
▁organizations	-11.6038
_{	-11.6039
▁Island	-11.6042
▁ਢੰਗ	-11.6042
▁સેવા	-11.6042
▁সিং	-11.6043
nel	-11.6044
विध	-11.6048
▁देकर	-11.605
▁स्कूलों	-11.6051
ાયો	-11.6051
▁catch	-11.6051
▁चांगला	-11.6052
▁ಎಂದಿದ್ದಾರೆ	-11.6053
▁solid	-11.6054
[...]
